/**
  ******************************************************************************
  * @file    esca_dataset_medium_data_params.c
  * @author  AST Embedded Analytics Research Platform
  * @date    Mon Oct 17 15:37:44 2022
  * @brief   AI Tool Automatic Code Generator for Embedded NN computing
  ******************************************************************************
  * Copyright (c) 2022 STMicroelectronics.
  * All rights reserved.
  *
  * This software is licensed under terms that can be found in the LICENSE file
  * in the root directory of this software component.
  * If no LICENSE file comes with this software, it is provided AS-IS.
  ******************************************************************************
  */

#include "esca_dataset_medium_data_params.h"


/**  Activations Section  ****************************************************/
ai_handle g_esca_dataset_medium_activations_table[1 + 2] = {
  AI_HANDLE_PTR(AI_MAGIC_MARKER),
  AI_HANDLE_PTR(NULL),
  AI_HANDLE_PTR(AI_MAGIC_MARKER),
};




/**  Weights Section  ********************************************************/
AI_ALIGNED(32)
const ai_u64 s_esca_dataset_medium_weights_array_u64[93313] = {
  0x3caa738a3d8f7d6cU, 0x3da5de0cbdbef9b6U, 0x3c86c0e8be029196U, 0x3dd14864bd0c96e8U,
  0xbdb8c5f5bdd04dd0U, 0x3e0e793ebe2bd5fdU, 0xbe13412d3d98bddeU, 0x3dd78420bd3f0ac1U,
  0x39ee3f743d8bff59U, 0xbe5fb81e3da3c39fU, 0x3dbb60dfbdeeaf8dU, 0x3d89ff643d770515U,
  0xbe1293323e18444cU, 0xbd31c4f43d426816U, 0xbd845c9e3dd1bf4eU, 0xbbbf33b6be16bd9eU,
  0x3cb59ee1be575e35U, 0xbe1017d23e504fceU, 0x3b1a65b8bd451592U, 0x3d1662d73d3f1654U,
  0xbe9e9ce0bcb8b77bU, 0x3d41b15abcc1d915U, 0xbd324da0be246572U, 0xbda199133d330811U,
  0xbcc7a477be50fbe6U, 0x3e1f6376be49fd3dU, 0xbe87f3d93e51be4aU, 0xbd91c91e3ddfc2e2U,
  0x3d0c6e683daf9501U, 0xbc033576bdfb3412U, 0xbd022ee03dbe3f65U, 0xbd1582d2bd235b61U,
  0x3e2db160bd1e92e6U, 0xbe309ea5bd249db0U, 0x3c164fac3d62cd42U, 0xbe2de38abdd53385U,
  0x3e20d25c3d6d4172U, 0xbdda49f63db7aadbU, 0xbdd648c8bddb4842U, 0xbe0bec513b392860U,
  0xbe1c7e31be4ea992U, 0x3dce5a0bbe21ca4dU, 0x3e069bdcbc86cf43U, 0xbc8626b5bc4147c9U,
  0x3d1996303d7e0ca5U, 0xbd255d1c3dc3183dU, 0x3cd1daaabd8326b0U, 0xb99f518cbdf99b74U,
  0x3d8a422dbd5a7e09U, 0xbd13739bbd2a8a4fU, 0x3da303cb3e0ab2adU, 0x3e016eabbc7568e5U,
  0xbc9f5cb93e02072aU, 0x3cf798d63cbbb050U, 0xbdc895f4bcc22536U, 0xbe0413ea3d4db1d2U,
  0x3b4f4ebeba9ce91aU, 0x3cd596b0bd6290cfU, 0x3dee43503caf0439U, 0xbca54426bd517bf9U,
  0x3dbb67ef3db49116U, 0x3ca792c8bcde7aa0U, 0xbd680a88bdef9e10U, 0x3d6a2b68be00df67U,
  0x3de7d1f63df363b3U, 0xbd7110bb3dc3e5a4U, 0x3d9af8ed3e23cb13U, 0x3e1afbe93d9f6ab3U,
  0xbe1a09ebbda9b82cU, 0xbdbed92e3e3f91c0U, 0x3bc947ff3df22195U, 0xbc5702aabd29ca35U,
  0xbe16cb953e1c693bU, 0x3e323a78bd868b99U, 0x3e0c55a9bc809173U, 0xbd86e9fa3d40091cU,
  0xbc01ab3cbd9b5790U, 0x3c964b16be588619U, 0xbdc73f793e198b93U, 0xbdc772543de913a3U,
  0xbd9203abbe1fff05U, 0xbcdfbf0e3d4cd252U, 0x3d3af804bd8f154dU, 0xbd9e81463dfaf0deU,
  0x3e176679bce100f8U, 0xbcb3f390bc9cd220U, 0x3d41515c3e34ed12U, 0x3d89753f3e06e9beU,
  0x3db1ec00bdfdd144U, 0xbce64bc1bd57bca0U, 0x3e130a1c3e0648c3U, 0x3dd6915fbe506e89U,
  0xbe0914193dc88b35U, 0x3e1031ea3dd77edbU, 0xbd3af5edbdea81a5U, 0x3d9a9066bbda3a04U,
  0x3ca81c723c915d1fU, 0x3c76303dbdbac8fcU, 0x3dfb24c83dd5f95fU, 0x3caa867b3da47fd2U,
  0xbc31afd7bd844c02U, 0xbbebc548bdaeebe9U, 0x3bd6f2c8be312fefU, 0x3dbee318bd06c27aU,
  0xbde2cf993d151467U, 0xbcaceba23bfa0b47U, 0xbe1089d53d2de470U, 0x3d860cf53d9b796eU,
  0x3d6ee011bd85535eU, 0x3c8f0da4bbb3b361U, 0x3d350808be0f34a4U, 0x3d1d38313bce2b6eU,
  0x3ddd31523e314af3U, 0x3e3818ccbe0a99cdU, 0xbe26e5393d296eb9U, 0xbd41f61a3deef307U,
  0x3d9b949c3cddbf8bU, 0xbe07b84cbdcaa034U, 0x3dcfdceb3e0e2062U, 0x3e4cefb1be157d8aU,
  0xbe0482dabd9d60bcU, 0x3d4962c63e05fdc2U, 0xbe01bf803e0f4b46U, 0x3d5ec64e3d8b18e5U,
  0xbd0a4d21bccd7558U, 0xbe749557bd58a42bU, 0xbd80ad803b837a22U, 0xbdf4980a3d427562U,
  0x3d1612d33e31f3faU, 0x3ddd1e86be68ce69U, 0xbdc560d3be8ff6d9U, 0x3d69ad493dfb7728U,
  0x3d9d8429be049e1aU, 0xbda4c60d3d19b616U, 0xbe9d6df0bdcbdc39U, 0x3db2304e3ddae463U,
  0x3d895ae3be051337U, 0x3c303dfe3d5ef375U, 0xbe32ccbcbd1a9266U, 0x3d95d8c3bcacaca3U,
  0x3d0dd0023df77ab8U, 0x3e08b2dc3dff3dd0U, 0x3dcc486cbe25330aU, 0xbdeb2d4dbd8e4298U,
  0x3e1533943df24ad6U, 0x3dc45edbbcf763bdU, 0xbdec099a3c063e80U, 0x3b3fdcb03d2b3fc8U,
  0xbe1ac511bdf1ddc0U, 0x3c9b4ea93df2222cU, 0xbb9eacf83c7b9e87U, 0x3d1867d7bda1a3f5U,
  0xbe271b2a3e4393b3U, 0x3d0e8067be04bad0U, 0xbd65effd3d37aa9dU, 0xbe48f73d3e4781d3U,
  0x3de885c33e04261aU, 0xbc9757c8be0240baU, 0xbd76ec2f3e06d992U, 0x3df6ab0bbc6a16abU,
  0x3d862575bddbe621U, 0xbe34bc783e1d9a3aU, 0x3d06362d3dc3fd02U, 0x3b1f295d3d18a9beU,
  0x3d255a51bd9c7917U, 0xba8594dbbe53b698U, 0xbcd61647be329cfcU, 0x3e4ef0d1bcc42f94U,
  0xbae170953d51e6cbU, 0xbd386d803ce53eb3U, 0x3de4ffb43d7e8fdcU, 0xbde2c85dbe21dea2U,
  0xbd1f885cbd88cf3bU, 0x3d7aab133dd333bdU, 0xbd83eaa1bda0c14dU, 0xbe2c6c3bbdc4b6a4U,
  0x3dd406603d1a52f6U, 0xbd82a97dbd9f7f3fU, 0xbab29366be0503e7U, 0xbc879fa43e184973U,
  0x3c590948bcbca29cU, 0xbe3447493e1a2856U, 0xbde2d5c33c654505U, 0x3d7c96c03e17a049U,
  0xbe0f2222be3d4f34U, 0x3c51d713bdbb0dccU, 0x3e1476cdbd6bd947U, 0x3d99f67bbd1094b4U,
  0xbe52211a3af85deaU, 0x3d038e503deb4977U, 0xbd9afb70bd85c43dU, 0xbd54a15bbd9d8259U,
  0xbdd837a43d7a7e3eU, 0x3ddb3e053b56afc0U, 0x3cb030e4bd6ca047U, 0xbe5bd33dbda151a8U,
  0x3d58b65fbc9e96a1U, 0x3e11e694bdbe2b93U, 0x3dfb2f85bda63efcU, 0xbd210d93bbb87e9cU,
  0xbc6ac080bdfedacfU, 0x3de3fbc7bd4c816aU, 0x3d62357a3e2530a3U, 0x3e51e5e5be1791c5U,
  0x3d2b4021be17eb85U, 0x3dd88ea23e1d97d7U, 0x3db132ccbd630dfdU, 0xbbe54682bc89c8bfU,
  0xbd9f22633e78f521U, 0xbd3d568dbe2c0d4cU, 0xbe410dd0bcc43755U, 0xbd4a57d33d952bf2U,
  0x3e321c7fbe1a07e5U, 0x3dd1e591bdf9af54U, 0xbc8c8d633dcecf66U, 0x3df7aff3be44daadU,
  0xbc67b3ed3d880b84U, 0xbd070aed3dc31f8aU, 0x3dfb9233bc89e0dfU, 0xbda236b23d7e0210U,
  0xbe294feebd3a42c9U, 0x3deb2f00bdc0d88fU, 0x3c8dcedcbdfd41e1U, 0x3ce55bf93e0fa1d9U,
  0xbc65b9743db450b6U, 0xbe2e10c63c9f262dU, 0xbc88eac63e121abbU, 0x3db833993de7ccd6U,
  0xbd4399cdbe1688b7U, 0xbca2dabc3df6732dU, 0xbd444d1f3c647bb0U, 0x3e5829663d9a6289U,
  0xbe3fc5f3be67352fU, 0xbe771b48be007e9dU, 0x3db319b7bd9cd38fU, 0x3d21ade2be3ca965U,
  0xbdcf02803e1321f1U, 0xbcc370bebdb7e771U, 0xbd8c1b99bd5dc01fU, 0xbd91b7343dd36f38U,
  0xbd85a75a3dc4610eU, 0xbd8d58c6be894e0fU, 0xbd6e19973daf59f5U, 0xbdabab24bd8a52b8U,
  0x3de0f91cbcbffbaeU, 0x3d042367bdc46270U, 0x3d8f94443d904b3dU, 0x3d24c39abd937010U,
  0x3da5d38dbe3ee81dU, 0xbe4fc3a33e1644b6U, 0x3e350b39be4288eeU, 0xbd660f2ebda5742eU,
  0xbd1a6a97bd4b010fU, 0x3e0e20603e287867U, 0xbd56a9a8bddafc37U, 0x3d37fea43e1c1041U,
  0x3ce2d60bbd8fb5feU, 0xbd9e27e7bd9a071cU, 0xbdc69000bdf5a624U, 0x3e61fcd6bed4cb79U,
  0xbdd376d0bd76f276U, 0x3c842ff2baa23e77U, 0xbe20d9efbd572188U, 0xbec6bd503c6c1e78U,
  0xbcbb2a433e1bd211U, 0x3d3ed35abd24b3bbU, 0x3d9acc63bde2e914U, 0x3b8df64bbe022ca8U,
  0x3e4a323bbe44e157U, 0xbe8ff67b3def7fdcU, 0xbdae6d383e13ff11U, 0x3e157764be0bf175U,
  0x3c3c3cf83d8c0863U, 0xbcbbf510bd037ba8U, 0x3e1315313e19a98cU, 0x3cb7716c3d970adfU,
  0xbe2c8c99bbad682dU, 0xbde3fe04be156fcdU, 0x3e24abbfbd908314U, 0x3b2286ca3e1976adU,
  0x3b2d71c1be5a4e52U, 0xbcf8c2a9be059e74U, 0xbd18e6c23d768fb3U, 0x3da7b7683d64e077U,
  0xbcf004b6bd327d49U, 0xbe15994e3e13dae7U, 0x3e274ee83e24e40cU, 0x3d6c085cbda685b5U,
  0xbe2b57403dcf1205U, 0xbd2c5450bd2c579bU, 0xbd18936b3d53bc4bU, 0x3e05b9913c23ab84U,
  0xbc836cba3e2e71cfU, 0x3c9c8fa3bd889a5fU, 0xbd7c60a0bd851e9bU, 0x3de2d381bd1d9dd0U,
  0x3c72a2c1bdb746a0U, 0x3c1b66033dfc6a91U, 0x3de1a8f7bda8fddaU, 0xbd46a45dbd758e1bU,
  0xbe77f13cbd4479fdU, 0xbd2009343cc77db7U, 0xbd037a9d3dd705d2U, 0xbc82cf0f3d2f61c0U,
  0x3d233ba03d5544dcU, 0x3dee2250be6897beU, 0x3dc4a2c83dd2289aU, 0x3e098cde3ca375adU,
  0xbd8b6e29be20a3fdU, 0x3d06bdc83c431bb8U, 0x3d4e5eb93d343f98U, 0xbd17e5a93e3cbed5U,
  0x3d636158bd9d4b23U, 0xbe0a0a83bd54d5c4U, 0x3dd425263d3ee17bU, 0x3e329839bd9ad70eU,
  0xbe3f69fd3d055fdfU, 0x3adeff59bdc3977fU, 0x3dc43695be3ed10eU, 0xbdd1fa003d33b7eeU,
  0xbd64dcdb3e4a9ba5U, 0x3e0c855ebe3f5a84U, 0xbe3ceb433d9476e6U, 0x3d47cc613dc531c9U,
  0xbc81361abdbe23e5U, 0x3db6d77c3df4398bU, 0xbdc4c7c0be16405bU, 0x3d8de8a9bd943df1U,
  0x3c42d92e3dd66767U, 0x3e18ebeabe260b5fU, 0xbdb147e2bda41710U, 0x3d4dcd8abd855856U,
  0x3d17a3693b666e32U, 0x3d8b1f4fbb127630U, 0x3ddc483e3d12090dU, 0xbd944e86be64431dU,
  0xbdbccf303dde6604U, 0xbd8375a13cb0ded2U, 0x3d29bc9f3c68e13fU, 0x3cc0d699bcd5ea00U,
  0x3e446e78bda1984cU, 0xbe35e96bbde3d9fdU, 0x3d7fbc51bd6693d2U, 0x3e0b70a1bcf0e201U,
  0xbcc72415be374693U, 0xbe1c156b3e739684U, 0xbc574358be2cc574U, 0x3da9cf6fbd08b362U,
  0xbb9a5db0bc8ae23bU, 0x3e44f94cbd8256c5U, 0xbe1d4faebdd2bd3aU, 0xbdbfb649bd5cc110U,
  0xbdd16c82bdc6a2baU, 0xbbe4a402bdcd4185U, 0xbbde12f1bc884089U, 0xbddc4047bd98122bU,
  0x3dd86251be0739ceU, 0xbdcab481be04ba21U, 0x3dbae84ebe1120d8U, 0x3dc4b12ebe15fe87U,
  0xbdc31ee5bc2593fcU, 0xbca78aad3d077fb8U, 0x3db54f663d434318U, 0x3d6c98c2bca059e9U,
  0xbcb06cadbe1484a0U, 0x3d0d89773d49bd3bU, 0xbd8a046fbd742570U, 0x3cfc3e623c2a6938U,
  0x3dbe29f8bda42489U, 0x3d3172a8bbe2c02aU, 0x3d169df93c5f4d3cU, 0x3dfc880e3d2a1bbdU,
  0xbdd1b42c3dc2e46dU, 0xbd767df23db18e98U, 0xbe11bfcfbc7cbbbeU, 0xbc45738a3d985534U,
  0x3d95cac1bd8eb318U, 0x3dea6d8c3bbe1518U, 0x3d15ed98bd4031dbU, 0x3dafbb9cbd6b2056U,
  0x3d1c08c2bdc76eaaU, 0x3cfca9eb3d0e306cU, 0xbdb14ac3bcfc02f5U, 0xbc8cdef03dd94984U,
  0xbda6a873bde1ed10U, 0x3da10cbfbcc737c1U, 0x3d8cfe6a3e04cd3dU, 0xbdefd772be0bb12dU,
  0x3dd35177be506f1bU, 0xbd03da223dd36212U, 0xbb8d98023e2e3380U, 0x3d802c45bdb6a863U,
  0x3d9bd56ebe407ae9U, 0x3d5d15d1bddfde29U, 0x3d4d63793e1b7b28U, 0xbd10fad43d2a6bfdU,
  0xbe16dc5a3cf19a80U, 0xbd6f637d3ce7929aU, 0x3e089b6e3dc42063U, 0xbdf6c333be111856U,
  0xbe05523c3d9cd916U, 0x3c2df1a43d7b8917U, 0x3db06cae3bfe67c9U, 0x3cd389f83e40b335U,
  0x3e00e8fabe035d36U, 0xbdff2a12bd52d9c7U, 0x3e127e203d782334U, 0x3dbb6ce33c09b143U,
  0xbe4fded23d9d8327U, 0x3e0c12d1bd394913U, 0x3e218b14be1c182cU, 0xbdedabd8bd173041U,
  0x3d11b01e3dbfce4cU, 0xbd82a55ebe1facc0U, 0xbe45ce613d3c0319U, 0x3c9f30e73da717a8U,
  0xbdb919bebe5f4600U, 0x3ce848543e0c88f8U, 0x3d0b973ebde7fe7fU, 0x3e1022073dacc4ceU,
  0xbd574ccfbcad0a14U, 0xbdcb8326bda71abcU, 0x3e34256d3dc39f3fU, 0xbe3b1bf9bdd199f6U,
  0xbe05afe23e0cdc9cU, 0x3da6d9b4bd86ebf4U, 0x3d0c13a0bc7bad48U, 0x3c97f4893e1bfe8aU,
  0x3d9bfcefbda85308U, 0xbdb8c15d3d87ecf3U, 0x3d581f37bd324ac0U, 0x3e11fbc3bd4317c7U,
  0x3d2f8ac33c8b92d0U, 0xbd35be83bba5cfabU, 0x3d0df6e1bd6a17b3U, 0xbd0e6f8cbdf08be1U,
  0x3d72c0e8bd459201U, 0xbbc4bbc5be147934U, 0x3ccbd8d23cb06737U, 0x3d8627133d181662U,
  0x3d7ca13dbd9d2d15U, 0x3d95a5723ca420a9U, 0xbcd4c6c7bc5e22d4U, 0x3d6d24bf3c0b365aU,
  0x3d52f3ce3d0db84fU, 0xbc5b45b5bce90f14U, 0xbd123663bc41a961U, 0xbcbbb89f3dcbfb44U,
  0xbcc93a8abe344dabU, 0xbe02f6733d2acaebU, 0xbdc1e39abdb7708eU, 0xbd24bfd8bd19dfe5U,
  0x3d6c39d3bdebd974U, 0xbdb95725bdd4bbdeU, 0x3d8def5d3d6ff422U, 0xbd897a7abe064e77U,
  0xbdd4524b3d9f96adU, 0xbdb25a45be42a5f8U, 0xbe3a2b63bdea76abU, 0xbcb92587be20d9e3U,
  0x3cd57df3bc856eedU, 0xbe02ce69bc3c891bU, 0x3b28e352bda22b8aU, 0xbd9163e7bdb7f15dU,
  0x3deeaa5f3c5d7bceU, 0xbc22d43d3d34ebf7U, 0xbdcfdfbf3b515742U, 0xbd1e38283d74a832U,
  0x3d91c389be06206dU, 0x3ce56551bd5aac14U, 0x3d3fd3cb3d08b301U, 0xbe1dc813bd720348U,
  0xbcbc1bfe3c7ba569U, 0x3e0b9892bc67cd23U, 0xbd4b9fb7bddfd846U, 0xbda3625a3d4f72eeU,
  0x3d12adbb3c6afb11U, 0xbc43ed1dbda3f52dU, 0xbe23fbaf3dc86258U, 0xbcc59b5d3d8d5ec4U,
  0xbd1031513d69ccffU, 0xbe1ff2453d0a8c13U, 0xbc27b8c1bdb9e77fU, 0x3d2c1d463c487537U,
  0xbd3ef1e7bdf8b3acU, 0xbd9b95f6bc9a13faU, 0xbe0cc94b3c671087U, 0xbe5cee63bc84d233U,
  0xbd3523e0bd4de3b4U, 0x3c8628203e0fca77U, 0xbdb5925a3d97244aU, 0xbe4f2b8bbb34b7faU,
  0x3ba2b95dbdd3bd77U, 0x3d982ee53db56cebU, 0xbdf4a183bd50c238U, 0xbdd5d00f3dbf875dU,
  0xbcdacd26bc7a1496U, 0xbdc4317cbdb4c0bcU, 0xbe02c047be1ed572U, 0xbb414394bd82282fU,
  0x3d26d742bde12488U, 0xbe023e7e3dba553aU, 0x3d96d99d3d370759U, 0xbc874bcebd3fa7d7U,
  0xbd83e060bd53027bU, 0x3b5a8d3abe278ea2U, 0xbda717d33c7b57c5U, 0xbdad4c44bd2a67bdU,
  0xbb9d6c46bd9f2152U, 0xbc2ba7533dba0644U, 0x3d19b6363d8a76f1U, 0xbddd9b5dbe0c009dU,
  0xbd4c1bae3dd2a016U, 0xbbe886403d154367U, 0x3c17e8443ca86a28U, 0xbdf5c00c3b384200U,
  0xbd8aa8b0bc6c670fU, 0x3da49aa13d6c4cfeU, 0xbddc9d95bd0c8d41U, 0xbcb94933bda182d9U,
  0x3d5083883ddbce59U, 0x3d6025773cc7b401U, 0xbba4d9953d737be0U, 0xbdae330d3c2ab131U,
  0x3d9a0c453dfe0bf1U, 0xbcabe9b83cfe30dcU, 0xbda5716f3c84df30U, 0x3ced74fe3d0120b7U,
  0x3d8659f53da1f8bdU, 0xbe10a4fdbdc01742U, 0x3b56e809bc60a56bU, 0xbe1c40503c9a1fbaU,
  0xbe226df3be2c70d7U, 0xbcde9fe0bb926e14U, 0x3c95195d3ce838e6U, 0xbe1bc593be3b2f62U,
  0xbcee61a43d2e0280U, 0xbd7270ad3d583fd6U, 0x3d98ce8b3d7473ceU, 0xbd54e60c3cf691bfU,
  0x3d9d4b6cbd7cadbbU, 0xbba03c103c56b986U, 0xbd0c36c43d9340c6U, 0xbd8a98db3cfdfd4fU,
  0xbd75511f3d882b43U, 0xbe2626e6bcb869c8U, 0xbd26750c3c194aeeU, 0xbb458361bda216d6U,
  0xbde84d58bcbbe9eeU, 0xbdbacda3bcfcb26bU, 0xbc0a12f7bd4fe0efU, 0xbd84fec23cdf797eU,
  0x3d32b38f3d8cfc5bU, 0x3d9e44823c871aa3U, 0xbe034e8dbdc66d60U, 0xbbf89c52bdb88bd5U,
  0x3d747951bd9190a2U, 0xbe11dfd5bdc78273U, 0xbdc06908bd85ead3U, 0x3ca326babd223b84U,
  0xbc64ba95bbb4e57fU, 0xbe0b67fabc8155deU, 0xbdb85e493d421484U, 0xbdf9b153bd4db629U,
  0xbca4754ebc177a7fU, 0xbda31b7c3d66197fU, 0xbce57af73cda151dU, 0xbdda78f7bdcc07fdU,
  0xbd6a4e47bd3b1cb7U, 0xbd35d75c3e05078bU, 0x3bd44c5ebc5534d8U, 0xbd16bf90bdb6115fU,
  0x3d87fdb3bd45f7feU, 0x3dbde2903ddf553dU, 0xbd91c6d4bd32cc19U, 0xbdf563e0bbaedb35U,
  0x3d72eb0d3d2d03b4U, 0xbd94cf05bd58c67cU, 0x3ddebc90bd5dc991U, 0xbe150e3dbd2be0a4U,
  0xbe2af689bd957005U, 0xbd1826e43dbb2346U, 0x3d157e9abd9a72adU, 0xbe69a677be33f5cbU,
  0x3c806a953d8cd00aU, 0xbd95acc43c8880b1U, 0x3dc385e93d4803cdU, 0xbd71f8f83df03fedU,
  0x3e03b621bd8dadf2U, 0x3da28660bd69612cU, 0xbe15e4d6bba60c37U, 0xbe74fd783d8fef86U,
  0xbdee55ea3d798d9bU, 0xbc80f8a3bdadb6c0U, 0xbccc4bdcbb5fb17cU, 0xbce52d603d8c79b2U,
  0x3da37f64be3bcae1U, 0xbe00d38f3d8e107eU, 0xbdc688d63d5bba06U, 0xbd01a8823c207f77U,
  0x3da634f13d08623eU, 0x3dce57d6bc166ff3U, 0xbd415d25bc06136fU, 0x3c67ee0a3c8efaf3U,
  0x3dce01bc3ca04557U, 0xbcfff6503d8aaa97U, 0xbd78a086bde47b40U, 0xbd1c5f113df2d1b6U,
  0x3cd13a54bda359afU, 0xbe0f0fc7bd602c00U, 0x3dd82370be01315bU, 0xbdcf7a7a3d7eeed0U,
  0x3cb62c8ebe063365U, 0xbded937b3d19dbd6U, 0x3c74b3d33ccbc95fU, 0x3d21d45b3d71d6d3U,
  0xbd5ab5d63d478616U, 0x3d9ce8e4bd8f407aU, 0x3a3a99123e06ad77U, 0xbdef60d83d242c62U,
  0x3d93e60dbd8e90d7U, 0xbc5832953cda1282U, 0x3c464834bda65970U, 0xbd883849bd8d0ef6U,
  0x3d9550efbcfed997U, 0xbd57b921bd7a9aacU, 0xbd7e79bdbda41780U, 0x3d87ee5d3d7c9698U,
  0xbd7e8b27bdec6655U, 0xbda158ae3d7b8807U, 0x3cbb4ba2bb9fb116U, 0xbc2e0ad33bea6028U,
  0xbd4ddb553c11763fU, 0xbd5e6659be202758U, 0xbe1db15aba6e0780U, 0xbcad06993a5507bcU,
  0x3bdd37a8be17c841U, 0xbe282a5a3d985db6U, 0x3d63b97abe0a0ce5U, 0x3d761c133cc90bf6U,
  0x3d38c9683d82bab3U, 0xbd182badbd3d81daU, 0x3dc81d693dbe693aU, 0x3d916149bb740648U,
  0x3d495930be069b53U, 0xbd1c1d0ebcf6232eU, 0xbd3424e43daaed2dU, 0xbe49e981bdd6daaaU,
  0x3db36799bb616708U, 0x3ddf8a6a3dee5d38U, 0xbd6434333e223ca5U, 0xbd525a3d3db9758fU,
  0x3d586024bd225f4bU, 0xbc964536bc2df26aU, 0xbd6bd4263c8ff569U, 0xbde863853c1f12c4U,
  0xbd2b84a2bd5f0afcU, 0xbe0fc658bd82abc6U, 0xbcd1e94ebcbc8cf4U, 0xbcd3fd4e3d271598U,
  0x3d2b8d6a3d5da1daU, 0xbd7a5b6a3da8858fU, 0xbddcb7003da45a7bU, 0xbd8e8288bd7b8d70U,
  0x3b7e39383d3656ccU, 0x3c892e22be199ce5U, 0x3d8899883e2187dbU, 0xbdaacb27bd71cfd4U,
  0xbcd811e43d15c229U, 0xbe1048e53dd10294U, 0xbde514e8bc104994U, 0xbd17bac43dbbf155U,
  0x3ce16cc8bd86b67cU, 0xbcaddeaebcac0c65U, 0xbe17e5d5bd76183cU, 0x3c81d7fa3cdc1bc7U,
  0xbde0d9173d79bc0fU, 0xbdf80bc13d7477d1U, 0x3cd8bb01bd4a1edbU, 0x3b46aec3be0f86c3U,
  0x3cf0537d3cc93cc5U, 0xbd53ac46bd894189U, 0xbe45383fbdf95c7eU, 0xbdf9d1fcbdf13916U,
  0xbcf9860bbd611511U, 0xbe2c9eccbdb18b69U, 0x3d8197d4bd68f6d0U, 0xbceac4dfbda5ad4cU,
  0xbc4df3523d6d8ff4U, 0xbd7610cb3d0cb085U, 0x3d3d096d3dc77c8aU, 0xbda0e915bd4d77a1U,
  0xbcd71592bcfd613bU, 0x3d3decab3bab4597U, 0xbd01dfc43d91bffcU, 0xbda427aebbd8829dU,
  0x3dc027edbd2adb04U, 0xbc85a6c73c89d89dU, 0x3dcff7be3dff5e29U, 0x3d46c4cebc5c8253U,
  0x3e29880d3ce7256cU, 0x3c24baa53c47e739U, 0xbddbf148bdabec85U, 0xbdbd143b3d13a6e2U,
  0xbb9a1991bdc0807dU, 0xbe44dbe83cd5cd83U, 0x3d8ba89c3c0dc690U, 0xbd3c5c9dbd633511U,
  0x3c8eae14bd7bb7e8U, 0xbcc2bdadbcf079f8U, 0x3d7588573b65e5beU, 0xbd64ae083d30521aU,
  0x3d9760c93d12e874U, 0x3da3f2eebe2a7ad0U, 0x3da219fd3d3b00daU, 0xbd56a7913dcc323cU,
  0x3d8eea15bd47b8a7U, 0xbd9fcbf83d8eb7d8U, 0xbbb2e24ebdf0085cU, 0xbcc0c7f7bcbf115aU,
  0xbd59e7c0be18af2cU, 0xbe2169883d6cceeaU, 0xbd29aa66bc16e53eU, 0xbcaaab01bd64b44cU,
  0x3d02e2d7bd6dc79eU, 0xbe0fa42bbdce16f7U, 0xbc059ab4bd9550a8U, 0x3d7d5926be1f2734U,
  0xbd1b57cdbcad6988U, 0xbdcc3601be3834d4U, 0xbdb057483d6e4e74U, 0xbc9c6f5b3d27f746U,
  0x3d1ad3b8bdea4e7dU, 0x3c32b0f0bdbe6ac9U, 0xbcc043bbbd004ce2U, 0x3d5e94773c9cbc38U,
  0xbdbfd4003e2cd51cU, 0x3de1209d3de14e60U, 0xbcdfcc6dbd386c62U, 0xbcd888803ceaa2acU,
  0x3df30c1e3e3e18adU, 0xbd1f225cbd92a53fU, 0x3d41628a3daea881U, 0xbc8bfec9bcc8fa20U,
  0x3d73b2103d749a21U, 0xbd00aec23d313fceU, 0x3d6dab32bcb011b6U, 0x3d862294bc35bbc7U,
  0xbe722083ba35e563U, 0x3cc5c4fe3dbad935U, 0x3d240ce3bdaf596dU, 0x3c83e736bd288551U,
  0x3e75403dbe6e600cU, 0xbd0bb8d43d5c637cU, 0xbd0cd5ca3cc310a4U, 0x3d55f434bd536155U,
  0x3e01bfafbd76982dU, 0x3e086ef2bd6c0f55U, 0xbc147591baaddae6U, 0xbd05d237bddbd2a1U,
  0x3e2701c7bcd1b4f6U, 0x3d9e20dcbe417c19U, 0xbd4fcdabbd581c5bU, 0x3e341b8dbdc144d6U,
  0xbe9f669abdf9a673U, 0xbe1128e73d84792cU, 0xbce4745bbda10a8aU, 0xbbf89ed5bd69ff95U,
  0x3d9c3435be0b199dU, 0xbdcb785bbcd6ccaaU, 0xbe35d09ebc84f0ecU, 0xbdb6a5da3d8d717dU,
  0x3e085ce23cf406bbU, 0x3e43d29a3d86650fU, 0x3d89b0693d74d0deU, 0xbde17faebc8625deU,
  0x3dbbc5a63d0eb441U, 0x3db155a4be805a9bU, 0xbd71a7503da409dcU, 0x3d7712b1bdbd263eU,
  0xbe663a61bdabd886U, 0x3e089de5bbe05d86U, 0x3dccfc733e197bb1U, 0xbdd57131bd93243aU,
  0xbd38ad763d515e5fU, 0x3cae3b2d3d0db792U, 0x3db8dc253d36164fU, 0x3dd3f263bd7a6926U,
  0x3dea84b43d148cd2U, 0xbdab66fcbd8d66b6U, 0xbe08dce43cf761d7U, 0x3b4db0edbd881854U,
  0x3df9d1a83db08377U, 0xbd04af403d8c0a86U, 0x3e1d5b973dac5158U, 0x3ce8f6ca3d580fe0U,
  0xbd92944e3db64a27U, 0x3c1b9bf6bd6444e7U, 0x3e228516bc83d5d3U, 0xbdb54a2e3ddab4acU,
  0x3e415074be092106U, 0x3ba5521dbc53605cU, 0xbde53515bd880774U, 0x3dcba8353de2e338U,
  0x3e9039a3bd3e5b64U, 0x3c084c8c3d07b763U, 0xbd457811bd7a3fe9U, 0xbddf0b5ebe559065U,
  0x3e750c893b003669U, 0xbd095bbebe615562U, 0xbe623ac5be074e88U, 0x3e515eb1be0cea5aU,
  0xbe30a185be412a55U, 0xbe4f5a07bddb748bU, 0x3d7914a7be13cdb0U, 0xbdb33fd73c0ca378U,
  0x3e2cce33be03d00aU, 0xbc7adce8bd486365U, 0xbe0e69e93d1fb522U, 0xbdab79d73dafd08fU,
  0x3e32ed0d3da96d22U, 0x3e0f91593d1e07e9U, 0x3dc8238bbddcd42fU, 0xbe1873a5bd4a46a0U,
  0x3e18f2243d3990dfU, 0x3d208428be5fe290U, 0xbd9aebd3bc84ce03U, 0x3e162b143c92bf13U,
  0xbe87d4bebe20d4ccU, 0x3ba945f0bdb0e171U, 0x3e320f3f3d83a5f6U, 0xbc067bb4be3184b7U,
  0x3d8013473e41f284U, 0x3a99fa523e042b65U, 0x3dd7e6933d69dfd7U, 0x3d1f601cbd341c1eU,
  0x3bc3d3a83e0d3be7U, 0x3d26502ebcaaa30cU, 0xbc52c3fa3dcfd0afU, 0xbd2b79cfbd16c174U,
  0x3d64ba103dedd6fdU, 0x3c0907803e475d5aU, 0x3e1a7ca93b40ff7cU, 0xbdc7385ebcf3c091U,
  0xbe48b58f3c55037dU, 0x3c9d3fee3dbacc4cU, 0x3e372bf1bdb26c6dU, 0xbd5075fcbbcdb768U,
  0x3d8ea78abe3a32d0U, 0xbcf9878f3d82972bU, 0xbda71b6cbdb93341U, 0x3db70fc53d570ecfU,
  0x3da2a241bd90b293U, 0x3dd902c03d61b2c0U, 0xbd04bede3d93dd3bU, 0xbb4faa00be4c6f11U,
  0x3db900ed3db0d06aU, 0x3c3fb79fbd6969fbU, 0xbda6ae22be29db37U, 0x3e2dd1c1bdad81d7U,
  0xbeb0c592bd94a2c8U, 0xbd7febf6bb9364caU, 0x3daac264bd47953fU, 0xbdfdff3abe315ec9U,
  0x3e66a846bd9f3653U, 0xbdf12a53bcfa8d42U, 0xbdb82ce8bd204d7bU, 0xbadbc66e3df60637U,
  0x3e20f8c13de60c8eU, 0x3e214e5e3da96467U, 0x3cab9524bd878a64U, 0xbd801769bdfd0a35U,
  0x3da1d5793ddf72abU, 0x3c57e525be6b5d49U, 0xbb0b6492bb4ee259U, 0x3ddd7267bdcafbcfU,
  0xbe722d0dbd6c0276U, 0xbc9f293dbcf41bbbU, 0x3d0927793dcd6d5fU, 0x3d578537bc6fc33cU,
  0xbc205ef13bc1e06cU, 0xba66724f3ccc0e03U, 0xbd8919b4bd99d72cU, 0xbb319bbd3c6bc0c0U,
  0xbd11f5323c57c16dU, 0xbd78db4b3d7f1465U, 0xbdac6644bd24db29U, 0xbdcf20ecbd90e8a7U,
  0x3c9dd5463d3ea99fU, 0xbdc2f10c3d256ad4U, 0xbd04e2d1bc8e4b80U, 0xbc6d45c9bbbe8f72U,
  0x3c4c5be0bdb09ffeU, 0xbd85fce1bd7720a3U, 0xbdc6d065bdd155bdU, 0x3d81a45ebd8c3f03U,
  0x3cb3ca4cbbd1ff09U, 0xbdab44ae3cfe1a9aU, 0x3de009ca3cc537ddU, 0xbdcda9813cddffdaU,
  0x3d3d20fe3d1e4b5fU, 0x3d83c3143d4b0fa5U, 0x3dadc1553c4048b3U, 0xbd5e39d33d36f45fU,
  0xbdac7c453c9a222eU, 0x3cf189503d3d1993U, 0x3cd7dea3bddb05ecU, 0x3c4a8e3f3dcb56e1U,
  0x3db174d7b8a424f5U, 0x3d805fe7bdcd6ce1U, 0xbe00c70f3d3886b7U, 0x3d8c10d53d3e1207U,
  0xbdba0c18bd0cf5e7U, 0xbbab0ff23cfb7f70U, 0x3df5abb3bceb083dU, 0xbb3407303d5e7f92U,
  0xbd5cfb9dbdf817e6U, 0xbca244093d16f93aU, 0xbcdab2a83c658e36U, 0x3cef8f6dbd5ee0b4U,
  0xbd82449d3cacb846U, 0x3c4ace3d3d9af674U, 0x3cbbd1f53b8f54f3U, 0x3d8ff337bd2ae5baU,
  0x3e047145bd9df557U, 0xbd2f9542bcf808f5U, 0xbd24131a3bb13edcU, 0x3c02a6bfbcc603f1U,
  0x3ca6a8cfbc6d50fcU, 0x3d5b8a0e3d623262U, 0xbdba69a5bdc904d5U, 0x3de8fe17bde12b5bU,
  0x3d63f0493d6c5e50U, 0xbca9eb6bbdbfa8e6U, 0xbc99076f3d689688U, 0xbd7bfb52bde98816U,
  0x3c038bf03d82b7f8U, 0xbdac9fe83d55c382U, 0x3dbd35a9bdd04720U, 0xbd5462543da7e0e2U,
  0x3da2d528bd95bec8U, 0xbc44fb5ebdc36dabU, 0xbd95a1643c2e5a35U, 0xba03c1bdbda1f5c4U,
  0xbd21f856bda37b59U, 0x3cd5fa5bbd584791U, 0xbd99ced4bdb82fd4U, 0xbd5bc17ebd888e14U,
  0x3e00a8d73d4a7cc3U, 0x3dd98bcfbd8e2be8U, 0xbd55789e3ae8e53aU, 0x3d574620bd6d80e0U,
  0xbc6b95003d9f3ea5U, 0x3d81677fbd270561U, 0xbd76dda6bddf1ed5U, 0xbd703e09bdc14a4eU,
  0xbceb09253d8b1547U, 0x3b51b0f63d536ef3U, 0x3ca5160a3cc9bb30U, 0x3d9e69913da3015bU,
  0xbcd9bb58bd093080U, 0x3c41a72a3c8a787cU, 0x3c0723b83dbe215cU, 0xbd1dc52b3bafee20U,
  0x3c98d612bd039d90U, 0xbd4f08133cca6cf0U, 0xbd1f49c33c872da0U, 0xbde8ca693dce04bfU,
  0x3d8aa5223b271ac3U, 0x3d4b2beb3d08e918U, 0x3da314fbbcf6d03eU, 0xbddca5533d51bfe9U,
  0x3dc7499cbd7f584dU, 0x3d8f6df03daf6ba8U, 0xbbe491c4bd099f26U, 0xbdfe44bebd69d2bcU,
  0x3dc75775bc6bb450U, 0x3d7d410b3ca6db0cU, 0x3d8a72ddbd58b102U, 0xbd927fc7bdba61bcU,
  0x3def0c21bd3440f2U, 0xbd40516ebdb18bd1U, 0xbc1735653c842c11U, 0xbdc9eb61bd574faaU,
  0xbd52d0c2bda2e8e0U, 0xbc9197abbc556ca8U, 0x3c688cde3ce83966U, 0x3dc4e45fbd9672a1U,
  0xbd209ef03b94da08U, 0x3d706b5fbd349a5bU, 0xbddfee983c1f84f7U, 0xbd2eace2bceace08U,
  0x3d8ee9c03cb2a91cU, 0x3a9929673bd35e7eU, 0xbdbf391abd6d5bf0U, 0xbbbfb842bda67378U,
  0x3d18c9573c2080b8U, 0xbda915053dbca1e6U, 0xbca0ede2bd8e0d22U, 0xbc4edacfbb64e3d4U,
  0x3cea4b58bd2d414bU, 0x3db0b3ffbc53dccdU, 0x3d1c8275bdb267dcU, 0x3dae6f003d63c956U,
  0xbd93f803bb27e05aU, 0xbc52e1cebb019a39U, 0xbc931319bc6d86efU, 0xbd90812e3cbd31ccU,
  0xbda429da3d018738U, 0xbd762a273d970245U, 0x3d9779773d31b407U, 0xbc5cb9f0bd378ffbU,
  0x3d89ddf7bb9931f0U, 0x3dd7e4683d97bf27U, 0xbd345740bc7f8c77U, 0xbdec9f79bd31155fU,
  0xbcab879d3c4f1c89U, 0xbcb2c6f9bd82e9f3U, 0xbd92ae8d3d38cfc1U, 0x3cb1f17f3d2d5e96U,
  0x3dcfff32bc1c8375U, 0xbb3e83a73d95a35eU, 0xbd8332e1bcd9eebfU, 0x3cd67dea3d79b5abU,
  0xba16b398bdd59d21U, 0x3dd1ddbd3d823ad0U, 0xbcf496f9bd224109U, 0xbc955f7c3d637dfbU,
  0x3c0c2d73bd0c88aaU, 0x3dfaa4b4bd5af17aU, 0x3b51fb783c5b6ba6U, 0x3df3ba8e3da481e8U,
  0xbdcdc2cc3df86dc6U, 0x3beaba743d1a62b2U, 0xbd8febbdbc8df70fU, 0x3cf6ebf43d82dea4U,
  0x3d816c353c19f8dfU, 0xbdb41f1abbf9ef12U, 0x3dccfaccbd59e4dcU, 0x3dc723db3b68bca0U,
  0x3d4d9b183d8ee6cbU, 0x3d15fce13e0875e4U, 0x3de0c79abe33db17U, 0x3c403d99bd2f1e60U,
  0x3d7dca7d3e1b6857U, 0xbdca5638bd71f3ccU, 0xbc623a083d63411cU, 0x3e0591fe3d6410efU,
  0xbd193f6a3d42a8ccU, 0x3def19373c1a830eU, 0x3d36c4133ca4dd72U, 0xbdb04fa63d0ae6f9U,
  0x3dc9c6ab3bf33ddcU, 0xbdcb81063da63359U, 0x3e2d743cbc42215bU, 0x3c0af48e3e14fa27U,
  0x3d52f4a5bce544e7U, 0xbdc290e33cfb41e5U, 0xbcb89a31bd980d5dU, 0xbdcfd0d9be27a78aU,
  0xbd64cb4abd4257caU, 0xbdbcf34dbd70c706U, 0xbd597245be162b1eU, 0xbd90e6f73cc22124U,
  0x3b96ca21bdb6b702U, 0x3da3a8ba3cf3e34eU, 0xbce958f53dba732dU, 0xbe785b243cf67ce4U,
  0x3df5316f3df901d9U, 0xbd52d65dbd1025ffU, 0xbe0f4f9a3d6b14b7U, 0xbcb754bc3e30ddbdU,
  0x3d9c8942be17d722U, 0x3e2581203baba9a0U, 0x3d67b6c43ccc094aU, 0x3c99050b3d63d450U,
  0x3d2c5bb93d920c79U, 0x3dca9c6d3da732efU, 0xbdb09d0cbd856f02U, 0x3d4a749b3cabef6cU,
  0x3dbf3e353d17ec93U, 0xbd3a51513ce8b573U, 0x3c3ff9babe0536c4U, 0x3d43e8d3bd9a0983U,
  0x3b07f99ebdc94173U, 0x3da606d2bd9ba3edU, 0x3dd158303cac4732U, 0x3d5913bebd6de93dU,
  0xbdc77bf13d13149aU, 0x3d1690343db5500aU, 0x3da6d1bbbcfe3d01U, 0x3d08a867be1f2f08U,
  0xbd8695033e02a73eU, 0xbd9210713d333c25U, 0xbdb372cebd4b28a8U, 0xbce92ae53deab219U,
  0xbde07f54bc28cf13U, 0xbd09a7063db4b2c5U, 0xbd58e8763ce84b17U, 0xbde17837bccd1640U,
  0x3e43ee733ce253b1U, 0x3cab3e89bd2540c2U, 0x3e268432bdae724bU, 0xbb82eb1a3d0f5853U,
  0xbc96aa0fbbff5f3eU, 0xbd0925bfbdd9c170U, 0x3d99db47be0ab8ffU, 0xbe12fe02be384a20U,
  0xbe3c83b2bdb61339U, 0xbe36c4d4be43db35U, 0xbdbc6850be03ac43U, 0xbb89bc693c9c56edU,
  0xbcd7c18ebe0cfcdeU, 0xbbb663423def0aadU, 0xbcf72dd1bd685a8dU, 0xbdb029783c465edfU,
  0x3e0096893bd365afU, 0xbdd092103d877f57U, 0xbdb867733be0f436U, 0xbc9a643a3d38d624U,
  0x3cd4ce5a3d4f087eU, 0x3c68c649bd161984U, 0x3d39d0433d4d4729U, 0xbd48614abdc99835U,
  0xbd6fb3573d91b8e6U, 0x3d4ad04d3c2613f3U, 0x3cde033abc3bac56U, 0xbd4bd8ad3d86713cU,
  0xbdd99bb73de4ee96U, 0x3d458470bdb3bb4dU, 0xbdc08083bd8c6a84U, 0xbd6fee283dc1570bU,
  0xbcf93c4abcbd3a92U, 0x3be5b0583d4652c4U, 0x3e2fac7cbdf6913fU, 0x3d77a449bcc5d1fcU,
  0xbdef92af3d71cb54U, 0xbc9523343e1be927U, 0x3e1265d7bdba4a87U, 0xbdbcbaf7be149a7eU,
  0x3d7a662f3dc0c043U, 0xbdc599d73c82b826U, 0xbdaa76543c1c5b6dU, 0x3e0fe0303daa37baU,
  0xbdb54c9e3d96fe5bU, 0xbce8a54f3dbc32a2U, 0x3c8c3fccbdb3400bU, 0xbc13c2813d999183U,
  0x3cdcca903ca17497U, 0xbd831ab73d6ee3cbU, 0x3e103be7bd573890U, 0xbc8f59163dd7a881U,
  0xbcb19cd33e06ada5U, 0xbda680593d9dc669U, 0x3ded8bafbcf18f34U, 0xbe909351be273636U,
  0xbcb5c2d9bc8a125aU, 0xbe17b51fbddc848cU, 0xbd95952dbe312cf7U, 0x3d9007c3bd0733bcU,
  0x3d3ec5e0bd4bb06eU, 0x3e0b55913d7883d6U, 0x3deaa82abd009ca9U, 0xbe06dd7bbd166306U,
  0x3db6aae2bd78961aU, 0xbdccca2e3c378c23U, 0xbdacb48ebdad0fdeU, 0xb9a5dfd03e04f05eU,
  0xbd5b55d0bcb77e02U, 0x3be1d09cb9e7a363U, 0x3e355420bc8b722bU, 0x3deacc723db64820U,
  0x3e16bdebbe372f6cU, 0xbcf4ef1c3c9b92f7U, 0xbceb3e32bd131989U, 0xbe6cd93d3d8fe79dU,
  0xbd243540bda26b4fU, 0xbbb2ed003d79de48U, 0x3d9e5a01bb714941U, 0x3c8edffbbca47e7fU,
  0x3dffe5283bc8ff42U, 0x3d57ab09bdcbd104U, 0xbe4b73cfbda92df6U, 0xbdefa913bcb205f8U,
  0x3d63312d3d30a3efU, 0xbe0ef04fbdb444fdU, 0x3c0d5f16bdbdbb14U, 0x3dd44b373d9477beU,
  0x3db65928bde87424U, 0xbbbc22c1bcb4a975U, 0xbcaf04463b7737a7U, 0xbd203b3b3d4cdd83U,
  0xbcd27a45be0b01daU, 0xbe17522fbe38301dU, 0x3d7ee1a23de4e336U, 0x3dbf82fcbd22b73aU,
  0x3c8158bdbda42682U, 0xbd0c6a1cbda758ebU, 0xbd9ef888bd919476U, 0xbc81cb89bd4a2ba4U,
  0xbc812bcdbdd066ceU, 0xbcac5e4fbdd0560cU, 0xbd0a3df1bdd304c8U, 0xbd908ff2bdfc967aU,
  0xbd86a53bbdf8c0d5U, 0xbddf546fbe186d7bU, 0xbddc3b4dbc407590U, 0x3d195f073d56ef6aU,
  0xbd442ad73de1b0aaU, 0xbe2ac125bd9bfdb3U, 0xbce3552cbcddbe05U, 0xbd9d887cbd707c15U,
  0xbd020e21bdc6903bU, 0x3c2b86133dc65986U, 0x3dd40a7bbd4d2461U, 0x3da720c8bd9bc47aU,
  0xbd75af32bb70a105U, 0x3da90687bc4c00a3U, 0x3dac30723cde26adU, 0x3d949d35bc076702U,
  0x3d9b3ba6bde1b0dcU, 0xbbed110c3dcdb708U, 0xbd7ae7e5bd84f7d2U, 0xbe24e6eabc06993bU,
  0x3cce3e1c3d1839e4U, 0xbcec599bbc6283f9U, 0x3da31e833e04e69dU, 0x3c1fdbea3d059ce2U,
  0x3dbf8360bdca9ccdU, 0x3d92fd0a3ca8199fU, 0xbdb40035be0761d3U, 0xbdced37e3deb6d0dU,
  0xbdbfeefa3c91f049U, 0xbcced060bde2eb94U, 0xbc02df14bde9b97bU, 0x3d97bb883d7a3163U,
  0x3d686dc5bd516d15U, 0xbe0d33123d914834U, 0xbd8bf1cf3d425592U, 0xbd3043d53df9600bU,
  0x3d76328ebd90abf9U, 0xbe06fc03be4f66d4U, 0x3d8aca983d02d3e6U, 0x3d0487653dc3de3aU,
  0x3d3d2249be036df5U, 0xbd703d3d3d24f696U, 0xbd048831bd0e8c45U, 0xbd6163c13c9803d8U,
  0xbc8493ddbdac5252U, 0xbe05f92b3d286c0dU, 0xbe552aa1bdd083efU, 0xbd83343abe21924dU,
  0x3c857e473d1033d4U, 0xbd20a78bbe60f8ddU, 0x3cae9a9b3dc89439U, 0x3d31f2e3bd0fe211U,
  0xbdcadaa3bd664110U, 0xbe1532bcbe803d94U, 0xbe2dbf8f3af6bb5cU, 0xbddffe44be543536U,
  0xbd0d3bcdbe325002U, 0xbdd715ea3d7c225bU, 0x3dad8c26be51f10dU, 0x3b0383f6bc9edfb6U,
  0x3b9c3fb43d651a87U, 0x3df1b5dd3d6c25a1U, 0x3e2a3f253df5e834U, 0x3dd1f18f3d82f02dU,
  0xbcc440aabe4b7e9fU, 0x3b5dc7e63dcdb225U, 0xbd83a5c1bce696f1U, 0xbe4ad3203d04c507U,
  0x3cb52d04bd43cda8U, 0x3ddc30da3d54c923U, 0x3d0d486e3c96eee8U, 0x3d9d0fb73d7083a8U,
  0x3cc22aa7be229305U, 0xbc8ca4c43ae9c0c4U, 0xbe0dcbb13c98612eU, 0xbdbd5e063d972405U,
  0x3c1cc7f6bde59654U, 0xbde4dc0cbdc1fd82U, 0x3e116dc23c19c76bU, 0x3dd3f20abc6230a7U,
  0x3dab3925be0b7835U, 0xbdd4e550bd818f33U, 0xbde0fb103caed941U, 0xbd6bdf0a3e0f8cebU,
  0xbd8e33f7bd54aac1U, 0xbc88a231bdffc035U, 0x3da8a6e43ca56019U, 0x3de81c8b3d8e0fa7U,
  0x3d24da79bdf6a078U, 0x3ce5719bbd7fb6f7U, 0xbc27f0a4bd93e21eU, 0xbd50fd2b3cb41cd2U,
  0xbd102e67bd5719b9U, 0xbd7a968539f478c2U, 0xbe615dd6be4968feU, 0xbe3c70ecbdceaff6U,
  0xbbfc8244bd9fd778U, 0x3d7dc0f5be218595U, 0xbb6380553d8fb25eU, 0xbd33eb4fbe05ea59U,
  0xbd5aa6b2bd655a03U, 0xbe0fd1f5be56b3e2U, 0xbe068b3ebe355912U, 0xbdb4cb24be01a47aU,
  0xbde2ea27bdbcfe86U, 0xbe41862fbc53ef02U, 0x3d3b3088bd866d75U, 0x3c1fe1cfbda5145eU,
  0xbce4b85d3ccf8766U, 0xbdb606bfbd36d728U, 0xbd4f8c9bbdcaddfeU, 0x3df994a03d83f395U,
  0xbb8335d83d0f8b16U, 0xbd68fd843d11b14dU, 0x3d61eac8bdccf6d3U, 0xbccdbba83e38d191U,
  0x3da512063d609940U, 0xbdafcf89bda23bd5U, 0xbd442777bbb4391eU, 0x3d83a46ebd0d3d94U,
  0xbd5c1336bd8cc370U, 0xbdb4414bbcb9eeb2U, 0x3d1cffdf3dab23c4U, 0xbd4b06db3d1e459fU,
  0xbd9f2115bd811944U, 0x3d25b677bda0fd17U, 0xbdb42b53bdcdb5d8U, 0xbdaa666fbe1b5b5cU,
  0xbd558e503c574767U, 0xbd93e558bcd93a24U, 0xbdc7212ebd7762a6U, 0x3dd67840bd70de19U,
  0xbda015d8bcfd9397U, 0xbd70b8c23cc69172U, 0xbe1cc1cebd110c46U, 0x3d4d76213d97fc59U,
  0xbe0008eebc8cedd7U, 0xbc7d0bc53d4d26aeU, 0x3ae405adbdada902U, 0x3d4add7c3d668ff7U,
  0xbd85c32b3cffa013U, 0x3d5b65ccbc755781U, 0x3c1893ac3c4a8546U, 0xbdeee6c9bddc79d0U,
  0xbd836e293d7606d1U, 0x3dcfde8bbe427befU, 0x3dbb99f93d30ea08U, 0xbdbd5c033d1cb53bU,
  0xbcfa1e6bbd6beac4U, 0x3b68a6313d980688U, 0xbbfe3360be034efeU, 0xbd07e8443cb682ceU,
  0xbdd7d1bbbd6c2bf2U, 0xbdec4db43cb98d02U, 0xbd062867bd8b3a43U, 0x3cdc8995bc4e0f18U,
  0xbe03f7edbda1902eU, 0x3d36f9c13cd8701bU, 0xbd6e1cc8bcf59703U, 0x3dbb672f3d7ee784U,
  0xbd6212a0bdabe3c5U, 0xbd63b3ea3cc683ddU, 0x3d1e4d8ebcb363f6U, 0x3d24b2423dbda4e8U,
  0x3ca4d8293d13398cU, 0x3ce1819fbdefb3b2U, 0x3d1692f83d045c46U, 0x3e0e62bd3d9e9336U,
  0xbddf09a53c3114f8U, 0xbda533313d993fa6U, 0xbd9cf6873ad91a22U, 0x3d898fc73d2ab0bcU,
  0xbd9fc6f93d0c24f6U, 0xbd97902f3d81e74eU, 0xbd4bcc24bc59b68eU, 0x3bfd7a9dbde69a83U,
  0xbbee5cd03ce3b8acU, 0xbd152e27be1c2591U, 0xbdc580983cc2c017U, 0x3b7e9182bd9e0b0dU,
  0xbd211793bd70f6e0U, 0xbe4da184bd7a9031U, 0xbe066ae3bdb4a7c7U, 0x3ca3d87ebb8ee89eU,
  0xbdaddcd4bc097017U, 0xbdf4fcc33db78395U, 0x3d17b216bdd5de8eU, 0x3d8850823d81e4a1U,
  0x3b872c84bdeb8926U, 0x3d5d6ae8bd282f90U, 0xbe1fd305bcfd58eeU, 0xbd95af74be0c2f15U,
  0xbd415bc2bdcbbb4eU, 0x3cd50c7ebd1b66b3U, 0xbd9a6b10bd39111aU, 0x3da4d194be07a113U,
  0xbcee8fa1bbabd992U, 0xbc3089db3da43967U, 0x3d032512bd63128aU, 0xbc82a280bd8b5800U,
  0xbd99e0483d23d762U, 0xbc3df080bdce6d5eU, 0x3c4d91afbddd2048U, 0xbdafe4d9bd8af733U,
  0x3d07d660bdc51895U, 0x3d7659783e0aa88cU, 0xbdd0a609bc9019e3U, 0x3d86e1ce3d54c95fU,
  0x3dc67879bdaf12b8U, 0x3d90476c3d868bb5U, 0x3d1089703b43e231U, 0xbd67b5e53cce5246U,
  0xbd447b0fbdab99abU, 0xbd6e3988bdd03d68U, 0x3d914d7fbd7cbb7dU, 0x3bc89d6e3d5d0e95U,
  0xbdbb29f7bc47b661U, 0xbd4e15a33cfecba0U, 0x3d67f965bce45321U, 0x3db1d4a3bc9f6d20U,
  0x3b7421813cc0ac99U, 0x3d813b1a3c2f71d1U, 0xbd52eb4cbd45e0feU, 0xbdbcddf73bf34ceaU,
  0x3db3c6fa3d22cfb8U, 0x3bc90614bdf27c74U, 0xbc8f53003df1aefeU, 0xbc86bfa83cd7eb88U,
  0xbe03c924bd275f9bU, 0xbaaef4cebd2811dbU, 0x3d0571463ca6ca6eU, 0xbdb39ebcbdf87776U,
  0xbdd92029bdf18226U, 0x3d8ba828bda66e53U, 0xbc67568dbe19b81bU, 0xbd5e6fe6bdbb2e54U,
  0xbb01d17fbd43f49eU, 0x3dba04bebd31c795U, 0x3c3b2446bda25e0aU, 0xbd8d191ebdfddc08U,
  0x3c85f6ff3d4a3d9bU, 0x3d045701bdf50120U, 0x3a5c973d3bfac3f7U, 0xbc012f0a3d3cb9b7U,
  0x3d7c35f13c94ed61U, 0x3d8cd1f4bb782060U, 0x3d524dc73bb291c7U, 0x3d1aff57be1f3d68U,
  0x3c23749f3dc65c8cU, 0xbd4281d2bccf88caU, 0x3c2d72e8bc00fab5U, 0xbd3c0f1b3d715847U,
  0x3d73ade3bddbb1feU, 0xbd23bce6bc27fe1bU, 0xbd3161f5bdef7a59U, 0xbcf4a0aabdc9299fU,
  0x3df4b1a5bc1add91U, 0xbd6870e7bd747114U, 0xbd422411bcc8c21aU, 0xbdf9291d3d142abaU,
  0x3e2752d9bc97b512U, 0x3ddf4ceabde628a0U, 0x3da3b40dbe0e6f69U, 0x3d8cc6353d94a220U,
  0xbca03be2bde37bddU, 0xbc0708cc3d2aa5b4U, 0xbc6627e4be487ca7U, 0xbd8d43d13d6cb7d7U,
  0x3e178fcebd11a949U, 0xbe536627bcc92599U, 0xbd037499bdec305fU, 0xbe39045bbdadbe89U,
  0x3da4d3373c566edaU, 0x3de88cb53d0220a0U, 0x3b6754603d973998U, 0xbcd82eb2bda724a7U,
  0xbc19817a3d95abbdU, 0x3e0901543bf4fda7U, 0x3d54e158bdaefc97U, 0x3dd8b599bdddef88U,
  0xbddad96dbdcd47b1U, 0x3e077a1b3d0706adU, 0xbc13147b3e11cc57U, 0xbb973003bda29641U,
  0x3dc3d4d7bd17505eU, 0xbd64761a3ce6da0bU, 0x3dcabd0f3ac6f9d2U, 0xbcd1be4ebdacf65eU,
  0x3da7f449bdb6426bU, 0x3c1025f83c821fd0U, 0x3c3256b33d71ed77U, 0xbdf9a76c3d30857eU,
  0x3d5179b8bdb23efcU, 0x3d742e2cbc9c5dbeU, 0x3c93dd023df69a99U, 0xbd58b56f3e2aede4U,
  0x3d8c3280bd470f61U, 0x3da11f983d1b8e3bU, 0xbd37293abc38db99U, 0x3c16fa72bc0a276dU,
  0x3b9e2adabc4c7f19U, 0xbd8439b5bd98bad7U, 0x3d136c89bd21d752U, 0xbda3dbc1bac0b146U,
  0x3e1d4bad3da91afaU, 0x3d40010abcda62deU, 0xbd8fd07d3d10cd7eU, 0xbda7bf673daf4a03U,
  0x3d3896bcbd849216U, 0x3ca8b823bc6c450fU, 0xbc55b6fc3c6c316eU, 0x3e167ef53bd69794U,
  0xbe1ef1d23c4f8cbaU, 0xbdaf93b93d65f86bU, 0xbdc4842fbe59a6f4U, 0x3d627fd1bd433958U,
  0x3db50c67bb1b3821U, 0xbd1e4d45bd9a06bcU, 0xbe10f46d3d16fb91U, 0xbe1f54663d80a22aU,
  0x3b7997f5bd964638U, 0xbd38adf73d265656U, 0xbc6be7ecbd8c4ce6U, 0x3b891f4cbd186b4cU,
  0x3de4c3f43b67f3a4U, 0x3df5710cbcd5aa4dU, 0xbcdbf0ffbdd2a6a9U, 0x3e0c1fbfbc1fafceU,
  0xbb9add60bc8f21adU, 0x3dbe6c8f3dcbbd48U, 0xbc10fb813d24437cU, 0xbd96ea15bdb64e6cU,
  0x3c4f15b9bdb08c25U, 0xbe0e0000bc38ee7bU, 0x3e128e0c3d8eeb44U, 0xbdbca56f3c29ea0fU,
  0xbd1a7d60bdd0dd5bU, 0xbc99016b3ca6d3aeU, 0x3d8b2fcbbd6bb7faU, 0xbdb0d64d3da36bebU,
  0x3d37e3b5be344386U, 0xbc01bb34bc3147fbU, 0xbd2229963da5d7d1U, 0xbdea0cc03db52a66U,
  0x3cf34322bd17c7aeU, 0x38bb9548bc6a2ef8U, 0xbde4aaa63d858d8eU, 0x3d6a37e8be046bfdU,
  0x3e00147b3d218982U, 0xbe1aa0d63c06f962U, 0xbd0908a3bdc430f9U, 0xbcd523c23d50ae73U,
  0x3da4d1ba3e1ecd28U, 0xbdb54b6e3c3c06dcU, 0x3dc3dbdd3caea38aU, 0x3ce81560bd6570b4U,
  0x3e163f623e05f68fU, 0xbd1fcc9b3cb8f997U, 0xbd2981f8bc62e9d4U, 0x3e18b7fabcef04c7U,
  0xbe1b0628bdc84fe4U, 0x3d80c266bc8fbb8aU, 0x3d993c1dbe42b3a0U, 0xbd95440ebd54c24cU,
  0x3d3b95323d8746f0U, 0xbe537619bd31d2dbU, 0xbccc4a3fbd8a312cU, 0xbe3932a8bbec97dbU,
  0x3d9e99243d05fbf7U, 0x3d3b2d98bcc37016U, 0x3d9012ce3de781b4U, 0xbdcbfc77bdc9326dU,
  0x3e0736c43d620f0dU, 0x3d88c29b3cffb543U, 0x3d9f33bbbd87c083U, 0x3dd1dabbbd9cc9e7U,
  0xbd8a743b3b6d5ad7U, 0xbc6463e5bd8c1f93U, 0xbdbd7b893d4a0699U, 0xbe0b376fbda69a79U,
  0xbc4c7d06bd547bdcU, 0xbe38759c3d4a6653U, 0x3d1ce7febc5ac5f2U, 0x3abbaa39bd00ce28U,
  0x3c6174a3bd69fda6U, 0x3ca0f17a3dac425cU, 0xbd31935fbd7d91f6U, 0xbd881b96bd24d241U,
  0x3cece610be273b54U, 0xbb9fb41fbda91cdaU, 0xbb55af103c742de7U, 0xbdd416fd3e5417c2U,
  0x3d2b89453d648139U, 0x3df3fc7d3c3d9265U, 0xbbea66543d9a565eU, 0xbe06b04abe092d02U,
  0x3cb2b3a4bceff1beU, 0x3dbcb49fbe0279efU, 0xbe25909dbda3b3e4U, 0x3de61325bd717cb8U,
  0xbe03a877bdaa27e9U, 0x3e012c32bba4e7c6U, 0xbb8cd23b3d76db17U, 0xbd8876c03ca99cc0U,
  0xbd001d033e01c92aU, 0xbe4ce7e8bdfa7defU, 0x3d79f77c3d9384f9U, 0x3d8467e2bda59c17U,
  0xbe2555c63d3ba836U, 0x3dfcaba9bd82918aU, 0xbce0a8fa3e115c3aU, 0xbd2a45adbe399325U,
  0xbd9ca2b7be22c1bdU, 0x3de70e74bced306bU, 0x3cb4b7103d357904U, 0x3ce0ba28bdcbe884U,
  0x3d4f2f613d8f6251U, 0xbcba5f36bca2206dU, 0x3d6b011b3df9a49aU, 0x3e1f5c623ceedc45U,
  0xbde003d63dac5a41U, 0xbd2d7be53db464caU, 0xbe12ac4bbdea92d2U, 0xbdaf32ab3e16dbe0U,
  0x3d77e65f3d26f8aeU, 0xbbea04963d81586dU, 0x3ddc75debdb5abbdU, 0x3db692e83db3a512U,
  0x3d23436f3b990390U, 0xbe25a5d93dbf8265U, 0x3e00873e3cfb4af4U, 0xbe0907c6bd555b0dU,
  0xbdf55cef3bb2fadeU, 0x3d400bfc3d2a7e65U, 0xbd29ea483c4f4e7aU, 0x3e165301bcd62e9fU,
  0xbd74fa35be2263b4U, 0x3da082ea3d3cf23eU, 0xbd4fa2103d0a6d62U, 0x3d1e4581bc1386a2U,
  0x3e9f7eb33d282b3aU, 0x3b4e2d0a3d242c40U, 0xbc9c07623e0cee26U, 0x3dbafce83e3a9695U,
  0x3dc609613cbaa88aU, 0x3d7a2179bda7c7eeU, 0xbd9bef62bc1438daU, 0x3d38ecbdbc26ff04U,
  0xbdcd3689bc636d8cU, 0x3c1d089ebcc3bbc3U, 0xbdddc928bdd8c34fU, 0xbde2ca83bca49d2dU,
  0xbd18aba03e036298U, 0xbe16607cbdbafd0fU, 0xbdcdf920bd237264U, 0x3e11de27bdb8fb16U,
  0xbe4a73ffbc90c4a1U, 0x3bb73732bd6f0aa5U, 0x3e185c503d42c4aeU, 0xbc9ba0cdbe4f2cc5U,
  0xbd57976cbdb6d582U, 0xbd207ae2bcfaa312U, 0x3db88f7c3d3a35a7U, 0x3d474e9a3dc5cfa8U,
  0x3bd561ab3d861673U, 0xbca85b733e02bc9dU, 0x3d424d8b3d991c18U, 0x3e13dba9bd58dd40U,
  0xbdea39bfbc4c9591U, 0x3cabab81bd166943U, 0xbd92d0213cf810a8U, 0xbd164df63d862c67U,
  0x3d5033643ccd025fU, 0xbc9d42a63ccbc2adU, 0xbc7d37553ccc82a1U, 0xbd23398e3c817107U,
  0xbc61324f3d55ecbeU, 0xbdc1e9c73d1a161fU, 0xbd6b1510bdb4f85eU, 0xbb68c769bdacfc10U,
  0xbdb5e2e5bd481861U, 0x3dc420bd3d068759U, 0x3d979ac3bdf59ecfU, 0x3dc36ef33df406aeU,
  0xbd4033abbd3fe9c5U, 0x3db72c693e54cac2U, 0xbb25fce33d009632U, 0xbe1e1a573db57cfbU,
  0x3e9ea9163d27db8fU, 0xbd605c6e3c87fce5U, 0x3cd7b3a1bd883a74U, 0xbda27dca3e73290eU,
  0xbcdd3144bcf97cd6U, 0x3db5e4cfbd644689U, 0xbe0ddf3fbcfb78f4U, 0x3d753e78bda6f2d6U,
  0xbdb1f9b63d6dcf7cU, 0x3d2fb7afbd1b98a9U, 0x3db96ea9be088055U, 0xbd590780bdb8a7c6U,
  0xbd975874bd26014eU, 0xbe2d2c1536c6c400U, 0xba2ffc90bd45adafU, 0x3e07d316bc0a1696U,
  0xbd06f8ff3d87c569U, 0xbd3eaec4bd5cab24U, 0x3dcac72b3d32c6a3U, 0xbbd54111bde5f0e3U,
  0xbd8531bbbdf7a594U, 0xbd284e493e14c5daU, 0xbb6bf012bd86d169U, 0xbd4b00ed3d950eeaU,
  0x3cc97c59bdcbf8d8U, 0xbd9fa763bcfed564U, 0xbd1097c3bd0955f4U, 0xbc40ae76bdac46d0U,
  0xbdfe99dd3c75217dU, 0x3cee7272bd93dfcaU, 0x3cc3c4d3bdcdc94bU, 0xbdda17543d91deebU,
  0x3e70d13abdd55e34U, 0x3df0b631bd317825U, 0x3db085083dd18bceU, 0xbc7dfaf23c26c3f6U,
  0x3dad1c613e080c6bU, 0x3c1d4a013e0b1530U, 0xbcf9dcfabd1ddb6bU, 0xbdd5f8a1bdc78ca1U,
  0xbd091dac3b866bfdU, 0x3d398c983d96de66U, 0x3bd60bb63c7b2d59U, 0x3decb1403e11d8ddU,
  0xbc710885bdfb89acU, 0xbcfe87af3e6046f7U, 0x3db452bbbd4bd84bU, 0xbda587003d97c07fU,
  0x3e4a7900bd2b8e55U, 0xbdac71ccbd1cefc2U, 0xbdbbac37bd2fc874U, 0xbd9031223db6039bU,
  0xbd44a745be5bde82U, 0xbe351f80bc93b43dU, 0xbe25c59fbe1d7930U, 0xbe050b63be118a38U,
  0xbdd36aa8bb898bfdU, 0xbd3b5a18bd9cb46eU, 0xbc4f5424bd24cf88U, 0xbc302e673d92cdafU,
  0xbdbb7befbc3cf82aU, 0xbe586b98be7728e0U, 0xbe3ebb8ebe313f3fU, 0xbdba7d18be04a254U,
  0xbd3620dabd875d77U, 0xbe2bf436bc9433f5U, 0x3e089125bcd796c0U, 0xbc853ad3bdf9de8bU,
  0x3e0ebfb3bc97ce9dU, 0xbd51325eba3fb258U, 0xbe2e88443bb4c90eU, 0xbe4114a1bb1caeaaU,
  0xbd248a7cbcdfb1c5U, 0x3de8c9eabdf3dd21U, 0x3dd02d7b3d4123b0U, 0x3c11fab1be0222fbU,
  0x3d61849a3cfa7db8U, 0x3e0f2acabcc01eacU, 0x3ddc54fabe60a257U, 0xbdee0096bd101100U,
  0xbc8e4a2cbd187930U, 0x3d8bb4debda2c4c5U, 0xbe1283423de3aa33U, 0x3d64beb7bd05ba59U,
  0xbd4adedc3c8ff41eU, 0x3d881e92bd06d436U, 0xbd2fea083ddacdfdU, 0xbdb756cd3cc5b5b2U,
  0x3cb5e895be59d8d4U, 0x3da43ba43d36e0a8U, 0x3d831c46bd6dfb86U, 0xbe7fec53be4ecd71U,
  0x3d9fd18abdf2bcc7U, 0x3d9cc8fd3d81b291U, 0x3da270d03c049a66U, 0xbda5822a3dccdf5eU,
  0x3ce24f31bd44bc02U, 0x3ca0ce373c61d3e6U, 0xbe8465e43e1fb1e0U, 0xbe6cb3e33d8200d7U,
  0xbcb223a1be3eb17aU, 0xbe8efc5f3de6fa61U, 0xbe190729be43360dU, 0xbd669f86bd70cdbeU,
  0xbdbaf247be12a923U, 0xbd8c42f6bdc8b07aU, 0xbc10edb03d738dddU, 0x3d7952e1bdf3488dU,
  0xbe15663cbc9f32eeU, 0xbe35d7e5be4126a6U, 0xbe29864a3c1d5ad5U, 0xbcd7aa753d06b52cU,
  0xbdc177c4bdee6d59U, 0xbd9bd2483da04914U, 0x3bd505dfbe0c7f79U, 0x3cfd8539bcf255fdU,
  0x3e49d0debd11f2dcU, 0xbd2825ba3c37054aU, 0xbe3d7d7fbd9a8d07U, 0xbd8ad029bdcebeefU,
  0xbd9b974cbd619fdcU, 0x3de62eeb3cd3760eU, 0x3ddd3dbcbdafdf32U, 0x3d1917edbd3411c0U,
  0x3d4c508b3de95636U, 0x3d3ed3fd3e016a9fU, 0x3dcb93d1be8f7783U, 0xbe399e34bdb7519eU,
  0x3ddfd6fd3e01c890U, 0x3da71fc7bd53d9b2U, 0xbd3a9df53dd34124U, 0xbddc1ca0bdb21c50U,
  0xbd0319e83e0c18fcU, 0x3df5bbdebd6273d8U, 0x3dbc16a33dc58010U, 0x3d8a62bd3d87837eU,
  0x3d40aa45be3b19c4U, 0x3c3c3e9cbcd053bcU, 0x3d8bd78bbd9ea5b4U, 0xbe99d2a9be03fb46U,
  0x3d9576e3bdcfaa26U, 0x3e0fb1693e0a13d4U, 0xbd41a9fcbdbd1f00U, 0xbd8eaf113da3dfa7U,
  0x3d147be2bb9968dbU, 0xbd50be063cf8808dU, 0xbe1ad62c3cec2370U, 0xbde08099bc4c3421U,
  0x3d6b0b73be22d14aU, 0xbdab70753d93258eU, 0xbe706f7bbd59bd6fU, 0xbc712d28bd5d4ec7U,
  0xbe0a7c96bdca2eebU, 0xbd6d4291bc6c1532U, 0xbdb4dcb03cff5f77U, 0x3d247b333d53c0bbU,
  0xbe08ca1bbd734d84U, 0xbdc69ad5be18ef00U, 0xbddc29a1bde36b76U, 0xbe0000f43d2f9940U,
  0xbd1c3349bd1d7102U, 0xbd88c8fa3c8274a6U, 0xbd8bc07ebd8dc9f7U, 0xbce1e8a5be2dbbadU,
  0x3e349ed9bcb46ef0U, 0xbda0cfbf3d44c64cU, 0xbe5af10b3c23d877U, 0xbc09f30bbd9a0591U,
  0x39f4431fbe3d9247U, 0xbd91b55fbda1013eU, 0x3dd10084bcd4afb4U, 0xbdd86a0cbe201882U,
  0x3d1a70f1bc95310bU, 0x3e211b973e1f5e1aU, 0xbd980c62be47359dU, 0xbdc73777bdc9a1c4U,
  0x3dc382dc3db2b347U, 0xbcaabf17bcde2f2aU, 0xbce9f2b43dde4404U, 0x3d6054ad3c8af56fU,
  0xbda511a23d9c4f80U, 0xbb00ea39bc4e3150U, 0xbd7464cc3d95bea4U, 0xbd8e6ec63dc18f34U,
  0xbd9c56b4bdf5ed54U, 0x3e03d7023dcb079fU, 0xbd01ccc2bc63fff2U, 0xbe7bdad4bdf76edbU,
  0x3abaee1cbc33ecf4U, 0x3d418e973d9d4149U, 0xbdb8fee03ced78aaU, 0x3db09ffe3d3acb82U,
  0x3d07181bbd0bb209U, 0x3dc785273d84e8edU, 0xbe33b0c4bd72493cU, 0xbe207f3f3d0f96c5U,
  0xbe11033fbd922f9fU, 0xbda3425fbd323f39U, 0xbd930f89bd5cd342U, 0xbdd8fcd0bbe90baeU,
  0x3d9858af3d7e7347U, 0xbd886230bca35e98U, 0xbc9be3fc3dbb3860U, 0xbb8490953e18cd3eU,
  0x3da09e223d974360U, 0xbe117f79bd6028b9U, 0xbd997f7fbd0b6567U, 0x3cd66352bdfd8ab9U,
  0x3d279d35bc512fc6U, 0xbd986af5bdab4a7cU, 0x3d8e51d73c318fd0U, 0x3dda0e943d04b4f8U,
  0x3d1a7468bd8657e9U, 0x3c2ad919bdaf5df3U, 0xbc52683cbe0c4359U, 0x3d55b2edbd4fd006U,
  0xbd6541193d1db75aU, 0xbbfd6e8abe3af803U, 0xbdeea9623d02b949U, 0x3dfdf51a3dba1d2eU,
  0x3cd645f23de4029cU, 0xbe00e368be0cff5eU, 0xbd7633a1bcc570abU, 0x3df51dddbc9d523cU,
  0xbdb7fa0b3e1509f4U, 0x3c4cec95bc5fbc4eU, 0x3d2f5b0b3b1975abU, 0x3e10a606bcb32e64U,
  0xbc592d953c3212a1U, 0x3d11873ebda467b5U, 0xbe2dc81bbdd195ffU, 0x3d02338abddfa59aU,
  0x3e0871de3d842672U, 0x3e26ba5dbe40dd25U, 0x3da458223cf1e86eU, 0x3e08f0f9bc889eb4U,
  0xbbd3ef5f3d83bd71U, 0x3d508c98bd8b1139U, 0xbdb307433a978538U, 0x3e250a34bd77b9c8U,
  0xbbbb98713dc5e15aU, 0xbcf371c2b86f6b7fU, 0x3df973cebcf19447U, 0x3dbab89ebd70ec56U,
  0x3c42db56bc3f850cU, 0x3c89dd7e3cbdde92U, 0xbd5f6031bdb5f6a6U, 0xbdc8badebd263142U,
  0xbd4e1dfc3d8f1cf0U, 0x3d8dcf1ebe1af65cU, 0xbe0a95fa3d15da65U, 0x3e24d18e3d212160U,
  0xbcfc38893bd52913U, 0x3d23ea5dbe31f30dU, 0xbd91ace0baa128ffU, 0x3e117397bd10ef13U,
  0x3bd5a1f33d794be6U, 0xbd2065903c3aab3eU, 0x3dce7a23bd05573fU, 0x3dc05e593c6fad00U,
  0xbd6bd84bbdc23d33U, 0x3dbab35c3db0aaa2U, 0xbe1985c0bd9836e5U, 0xbcd00718bdd56c8cU,
  0x3d867b9a3d11bb7bU, 0x3cefc0f3be0ee06bU, 0xbdfdbfcb3d857875U, 0x3d927db13d6ef8aaU,
  0xbdc330da3cb357f3U, 0xbddfeda9bdf0edd5U, 0x3c335134bce92309U, 0x3de37af1be2bf031U,
  0x3c1e9e163d806736U, 0x3dc3c88ebd1ea235U, 0x3cdeede9bda09fb3U, 0x3bcddbdabd1d2705U,
  0xbd85b91ebdc56a48U, 0x3d3727a03d5c6f2dU, 0xbdf47dd9bdf3d304U, 0xbe1b356fbdaa4aa0U,
  0x3e0a86203d2f5445U, 0x3c3422b5be48fb8dU, 0xbd1306773be8151cU, 0x3e2667dc3dc95390U,
  0x3d74edd13dd8e75eU, 0xbdbcea5cbbb40387U, 0x398ded86bd88b063U, 0x3dbf7245be4a2ad9U,
  0x3ccb7290bc59888cU, 0xbd8ffdf9bcb55e02U, 0x3d917b9ebd626c7dU, 0x3df60eb1bb3ad9afU,
  0xbc5b65083d820e54U, 0xbd71fc93bca68ab0U, 0x3d974d76bd31a68bU, 0x3d973b8fbdfee0a6U,
  0x3da5d5f0bcec467dU, 0x3d876277be1d3c7cU, 0xbd6967973cfc11daU, 0x3da235da3da738acU,
  0x3d7b8be63c858d39U, 0xbd60c18fbd229829U, 0xbd3b60113c990a8eU, 0x3e48d04dbc10c79fU,
  0x3d17d3223cab0b51U, 0x3d169d47bd9cd937U, 0x3e2015bfbd6fd8e9U, 0xbc90b79bbd9792e5U,
  0x3cb3f99a3d970fbeU, 0x3ba7eb453d56d0beU, 0xbd4126c6bdb5f9fdU, 0x3d436da2bd2af7e8U,
  0x3dd9720b3d8dc0dcU, 0x3da4ffd2bdf9ebebU, 0xbe3874ed3b1dd9b4U, 0x3da7dc483b7b0fa4U,
  0xbdf630773e115142U, 0xbd8ff22fbe27e287U, 0xbd9b2bd83d9b6692U, 0x3e2aa0d9bde34b0aU,
  0xbdd339603e197576U, 0xbd83c7a03decabddU, 0x3d541402bd286de2U, 0x3d8d7e603dc31c43U,
  0x3d76317b3d28ad66U, 0xbb787a6dbdd6e26fU, 0xbdec7e1cbd01e495U, 0xbdc5803cbdd3b8d9U,
  0x3d15e1273d800e34U, 0xb9f25261be089cffU, 0x3d50e3363d43e343U, 0x3e36b01b3dd68bb7U,
  0xbcb0ad5c3d4ad983U, 0xbddf38bebdcc29f7U, 0x3dbcf01fbe2739bfU, 0x3d89c591bc587268U,
  0x3d17c6febc63a76eU, 0xbd193e38bc777c0fU, 0x3d0bba663d64d122U, 0x3d21d9cfbc4be6a4U,
  0x3d54b5f6bda8c3e3U, 0xbe377d9b3ccc6a68U, 0xbe60dc2ebda7e017U, 0xbde077013ccda840U,
  0xbaf0211bbca9ddbaU, 0xbda6efc1bd8e1537U, 0x3cbab9dbbdc7a445U, 0x3d6b8d8f3ca06826U,
  0xbe0a1ab8bd63a463U, 0xbd37c86ebdf7c8cbU, 0xbe185050be4b4077U, 0xbdc99684be0483e8U,
  0xbd2f3f9ebd9a11bdU, 0xbe54cf4a3d5b5c1cU, 0xba1e2430be415123U, 0xbd07c15bbdc24a0bU,
  0x3d95f7473dc1adc2U, 0xbd3c9342bcd8649aU, 0xbe8a053ebdb0fb2bU, 0xbe40b4683d7854f6U,
  0xbd789c75bc1c0498U, 0xbd0bd4a7bd51cd29U, 0x3dfcc4a7bc0505cfU, 0x3d056085bd4fadddU,
  0xbdc2a5ccbd122376U, 0x3e073c9b3d93bbecU, 0x3c8fb8acbe05b65bU, 0xbe46f3b8be41afb2U,
  0xbcd1ae633c10ad52U, 0xbcfa9e46bca28b4dU, 0x3c230bdcbd5e928dU, 0xbd69f01fbc0f72efU,
  0x3ccb58aa3e146a17U, 0x3da37247bdc58fbcU, 0x3d0925883d11135dU, 0xbcb13ff73cb92032U,
  0x3be71148bdbf1452U, 0xbd2a7b393dd3da38U, 0x3dc0f2583c24b8f0U, 0xbe1275c5be295efcU,
  0xbada57d0bc1981a0U, 0x3d4f7dde3db142b3U, 0xbdc04dc73d6ef1f2U, 0xbc3420ea3cd153e9U,
  0x3de24f21bddbbd33U, 0x3ca1d5603d1e29e6U, 0xbe7fa8cc3dc34d14U, 0xbe740f76bc7375baU,
  0xbce273f5bde39542U, 0xbe210432bcd56004U, 0xbeafb0d5bd0e6a51U, 0xbdfbb320bdb027c6U,
  0xbda3cebebde649c5U, 0xbdb91ccebe28bf6dU, 0xbd63c13c3d84051eU, 0x3d571d8dbe21e2f1U,
  0xbc1a15163caf6419U, 0xbd93f151be63bcf4U, 0xbe82d89fbda480acU, 0xbe0b50c1bd73ccd2U,
  0xbc3560bbbe4b523aU, 0xbdc8e5dcbdbb29bdU, 0xbc2bf758bc987f94U, 0x3d6e711abe58db9cU,
  0x3d90a3273d70669fU, 0x3cc4f1afbdae33deU, 0xbe1eff11bd7d2686U, 0xbd684d563d069198U,
  0x3d135b76be25a400U, 0xbd01bed7bdee104cU, 0x3de77425bd8f5212U, 0xbd96c6e1bc659740U,
  0x3d491cfa3d1479a6U, 0x3d0111ea3dad20d9U, 0x3d9369cdbe5b0781U, 0xbdf87888bd0444d2U,
  0xbcc5a16c3d81c75cU, 0x3c60072bbd715433U, 0xbde9a30b3d99feceU, 0xbc8d233eba24d6a5U,
  0xbb1e561c3c29f6f7U, 0x3d93f5383db4304fU, 0x3d1edc10bb243088U, 0xbdbea5f23d16331eU,
  0xbd8731d8be4b2531U, 0x3d924b78bc91b344U, 0x3d46e3813dbddbc2U, 0xbd899732be0e72f5U,
  0x3d2db4713c3d59d8U, 0x3d745bafbc84e0b8U, 0x3d879fbbbd2f8d6fU, 0x3d5a541d3b5f4fefU,
  0x3dd58285bdb87451U, 0x3cfcb1b23d785cd7U, 0xbe2e95e93e0ac5a0U, 0xbe7befd83bd819e9U,
  0xbc734543bd5cc470U, 0xbe829226bc578e81U, 0xbe22cf68be02886eU, 0x3b61d5a0bd18a3baU,
  0xbe1a2679bc0c460dU, 0x3bc5236ebc7bef17U, 0xbe0bfd403d9b5f99U, 0x3db32f8abe16e8a7U,
  0xbd9da97cbb89e7b4U, 0xbe0aff9dbe01b370U, 0xbe993ae23b29374eU, 0xbe0aa497bdda5003U,
  0xbd57014bbd810bdfU, 0x3c1b16fe3d928b34U, 0x3db80057be1654cbU, 0x3d6db5e7be256d26U,
  0x3e39d9273d7dfd99U, 0x3b7bbdf53d35782dU, 0xbe32236d3d81dedcU, 0xbdb83b653d4c25e4U,
  0xbbbc12c9bdeffb1aU, 0xbc86f1debd9236d7U, 0xba3a2e1ebaa5f2adU, 0xbd059738be371eb5U,
  0x3da4db62bdbfc460U, 0x3e283d413be422c6U, 0x3d5d5ee6be503581U, 0xbe3af05cbe33b1e4U,
  0x3e317ac7bc84c326U, 0xbd5fa912bc6bd399U, 0xbd0c47113df03c9eU, 0xbd1017063ddfceacU,
  0x3d0509bf3df0a9f8U, 0x3ce73c563d1be3d4U, 0xbd5eaee43dd68b62U, 0x3caaadfc3df128a5U,
  0xbcb1cd7dbe7667bfU, 0x3d8c6af13ddc981bU, 0x3db668bdbd68a710U, 0xbe775568be29fd11U,
  0xbbf5663ebdc39bb6U, 0x3c228aae3e26e782U, 0xbd422434bd921577U, 0x3d7a40ff3d84875dU,
  0x3da2a603bcf476feU, 0x3c391a41bcd0eb65U, 0xbe17f9d53cfe9386U, 0xbdd4d9f73e1f1ac7U,
  0xbd4c55c9bdac72a8U, 0x3ae2d5763ce2de77U, 0x3c8232f3bda0265fU, 0x3db94540bd6062dfU,
  0x3dc7a8413df6c0a1U, 0xbdc8f33dbd30f1f6U, 0xbd7688e13d905fdfU, 0x3dde5a13bc367a95U,
  0x3d40d9323e003768U, 0xbc1354ce3e0b8183U, 0xbd2970403d971136U, 0xbe5de66c3d33365bU,
  0x3e17d3f4bd956acaU, 0xbd696ecb3b935b10U, 0x3e0061833b4ca6f6U, 0x3c8750d73ddc1ce4U,
  0xbe45eaad3dc78914U, 0x3a2e50813e1da4b0U, 0x3d34f61abdda8c9aU, 0xbda21db7bdaa0ea8U,
  0xbe073a47bbaef340U, 0xbe8a23bebd46a2a2U, 0x3d0d8847bd408432U, 0x3e0bd8f83de1d6c4U,
  0x3c20c0493e0887b8U, 0x3d810ab23df8d3b6U, 0x3dacc65b3d92d59aU, 0xbd8f32023c5c4570U,
  0x3e1836623da4b531U, 0xbd9bf886bc58859aU, 0x3a0aa5ab3cf1218bU, 0x3daf75053d910456U,
  0xbcce45453d034d8eU, 0x3b7ef0bf3d5a624fU, 0x3c7ea57e3dc6d6eaU, 0xbd4e12c2bdfbe001U,
  0xbd3498ff3e255aa5U, 0xbde34d79be13212dU, 0x3c0633c83ddb360aU, 0xbcf0261dbcccbe63U,
  0xbd052a143e3b0c79U, 0xbd59ec0d3d88ee78U, 0x3df9e6e33dca77f4U, 0xbe4ec3a63d215384U,
  0x3d91c08d3dc14a3eU, 0x3c3d6cdcbd6cb72fU, 0x3da30cda3d7d06d9U, 0x3e46e6193d479a59U,
  0xbe3b9de63a239b43U, 0xbcca9bf23c39d19dU, 0x3bac751b3d203da8U, 0xbd85c3afbd89cbf8U,
  0xbd1e877a3d93f7e4U, 0xbe46da65bc6f98c2U, 0xbdc906803d2b7099U, 0x3c5b28293bec02e6U,
  0xbcea2913bcff3fbfU, 0x3d09320e3cb6f108U, 0x3d4ccd9cbd3b3fd2U, 0xbe352cd43d552426U,
  0x3e63c4b9ba660d64U, 0x3d79d96bbd689d8bU, 0x3e0061c9bd9a5690U, 0x3e15507a3dca1d6dU,
  0xbc8a0b133dc16725U, 0x3ca2c41e3e3fe9b6U, 0xba37545bbd4126e7U, 0x3d9bcb2abe23b6edU,
  0xbd68de083e2e604eU, 0xbe490af0bde40ad0U, 0x3c9d10833d465f5aU, 0x3da9b1613e080f4cU,
  0xbdd83b1d3e081181U, 0x3c02da883e2258e4U, 0x3dba1f433d9a1c01U, 0xbe7baae8bcbb7a33U,
  0x3e896d433c1a9afcU, 0x3c3204c33d39702cU, 0x3dff6b0a3d380011U, 0x3dd674303db35433U,
  0xbc0ae4babd5b8b90U, 0x3e130a95bcd2849cU, 0x3ccf50323d88e763U, 0x3d6f4739bdcf4faeU,
  0x3d6614e23e345a7bU, 0xbe17cebdbdee3440U, 0xbcab96313dbcfffeU, 0xbcb304a1bcc8d710U,
  0xbe19242f3cbef724U, 0x3e065bd53c83a07fU, 0x3de861b83c5569a8U, 0xbe8f758bbc8342feU,
  0x3dc7cc833db2ee35U, 0x3dd8b39c3db9d649U, 0x3dabfa64bd98c388U, 0x3d9481833dcc3426U,
  0xbdc055c2bc150099U, 0x3e0e8b183df85729U, 0xbd027fa03d925148U, 0x3d8eb89fbdcfc221U,
  0xbd800c613e1596d0U, 0xbd478360bd5f735aU, 0xbd17cf3bbdb67d9dU, 0x3d3435663dc8e4daU,
  0xbd7c0f2e3e12cfd5U, 0xbd4ff2ddbda04319U, 0x3bb16a41bcec67fbU, 0xbe4fafa33cfbba75U,
  0x3e78c363bb570cc1U, 0x3cb1b0ef3d43d8b7U, 0x3e0934a2bdb04b30U, 0xbce373d63de6a46cU,
  0xbe2100803dbaa805U, 0x3df055da3d3721eeU, 0xbc9324ad3cb7caf9U, 0x3c9776a6bbea3ecdU,
  0xbe07bba13e27ede1U, 0xbe8eead43d6207eaU, 0xbdead27dbd57438dU, 0x3e371b183deaa463U,
  0x3cef6f533dc3956fU, 0xbd4fb3d13dae0500U, 0xba849c2fbc457dadU, 0xbdbdd29abc4656d7U,
  0x3e37f1aa3d4c481cU, 0x3c92e5edbd9a711fU, 0x3e18759e3db474fbU, 0x3c08267d3dc37ba7U,
  0xbc22d03d3de1a77bU, 0xbc0817003cf6e521U, 0x3e09b080bda77193U, 0x3dab122bbce6d7ddU,
  0x3dd0f9a63e2fcd8eU, 0xbda898a6bdae0293U, 0xbdb591ff3d86e7e9U, 0x3d207e60bdb37faaU,
  0xbdbb53903e1cc9f9U, 0xbd46faa5bcd96ca2U, 0xbda5de0f3db2cadcU, 0xbd3e2c1abc88bf7fU,
  0x3d0923c93d867965U, 0xbcf4ba35bcf42d8aU, 0x3d41fe1d3d8acea4U, 0x3e1a5f873e162e1eU,
  0x3d8dea443cd6e4e5U, 0xbcf5dddd3d5840fdU, 0x3d4f64293d978f11U, 0xb91a7196bc08c8f4U,
  0x3d90475dbca829fdU, 0x3c4b9e5a3da72503U, 0xbd9a8ce8bd8e8043U, 0x3cf27ecb3c434cf7U,
  0xbcefbc7cbd72b249U, 0xbe108f1abd1e63a1U, 0x3d0977693de603d2U, 0x3def799fbc2907beU,
  0x3ce484933d9726a2U, 0x3d86c265bd2b3ceaU, 0x3bdaebfdbd9e535dU, 0x3c779c67bd6cbc92U,
  0xbe173969be17b4c2U, 0xbcaf940bbc242106U, 0xbe1c6668be16ef7cU, 0xbdc12726bb870d5eU,
  0xbc15832b3d996f28U, 0xbdde9401bc6cee71U, 0xbd184650bd889bc6U, 0x3d9dae95bd9fca34U,
  0xbdb93677bd9fe3cbU, 0xbd89a43b3ae7065bU, 0xbdabfb2ebd7d434fU, 0x3d9a62f9bdf4f36cU,
  0xbd3d2212bdb1d559U, 0xbaf3415cbd9f2fdaU, 0xbccaf3d73c13798fU, 0x3d914b9dbd9c96deU,
  0xbd1aab723cc9f906U, 0x3d963bdf3d98d572U, 0xbdd532663d955bcaU, 0xbd243c9cbdea7237U,
  0x3cdcbc653c776307U, 0xbdb24a023c729230U, 0x3d847cd23d1a6bd9U, 0x3d46464bbd998c56U,
  0xbe5634cc3d06ca9dU, 0xbe3f3967bc146efaU, 0xbdf85f18bcf09393U, 0xbdd670a9bdbbb4e4U,
  0xbe03dd7f3d2a24feU, 0xbd066ccdbcb98f2bU, 0x3cd2a7d0be09731dU, 0xbd9c9e363c818e6cU,
  0xbc59253fbdb86df0U, 0x3d179b53bd27fb84U, 0x3dcdeccabd7cba9dU, 0x3dde7555bddc4b44U,
  0x3d590c78be041ba3U, 0xbde366723da6f7f7U, 0xbda18da13cd77d1aU, 0xbd425e363d827585U,
  0xbdf29acebe06ed8fU, 0xbc5eccabbd457854U, 0x3cdad67d3d82b2e9U, 0x3ddbd1cd3d91e64cU,
  0x3c3b7e1f3c465008U, 0xbdc567873dbd3925U, 0x3d88cdb8bd4985deU, 0xbd07ef7cbd6a2173U,
  0xbe1c262ebdd77b4aU, 0x3d40842dbc9967e1U, 0xbdb06e65bda10f94U, 0xbdfedce8bdcde5ccU,
  0xbdee15d9bcad9120U, 0xbc088d4fbe0ea7d3U, 0xbd732e0e3dae6006U, 0x3d2e57793c0e091fU,
  0xbe5dc069bd2a9045U, 0xbe39cfe53bbd7f1aU, 0xbdae390abc88fef4U, 0xbc998ebb3b715ab8U,
  0xbca90c15bd8b01feU, 0xbd3c27463ca8438cU, 0x3d4c48e7bd1dd459U, 0xbd72508e3c83ba13U,
  0xbd4c5a263d496d75U, 0xbd4355a1bd2817ebU, 0xbd3af1753cfd8c07U, 0xbdc213de3d36d879U,
  0xbdbe88943d4e3196U, 0x3d1086abbd703072U, 0xbd276b9b3da1141dU, 0x3c45e9bfbdeaf70fU,
  0xbd990f553d7210c8U, 0xbde6985ebd9f0688U, 0xbde4683dbda4853aU, 0x3d13d2d2bdac3767U,
  0xbd85e40abd179f9cU, 0xbd36ce3fbacc6458U, 0x3da84c58bd700463U, 0xbbec678b3d17cd55U,
  0xbd00857abc83dde8U, 0x3d7f480d3d76c9c2U, 0x3d1988b3bcc4cfccU, 0x3ceec90ebd6b3d91U,
  0x3d9f3c67bc0ad479U, 0x3c18a1143c0e1368U, 0x3c88ccf13dc7e2ebU, 0xbcd483c03e159e05U,
  0xbe225652bdae1743U, 0xbe31d823bdd867aaU, 0x3d338bd8bd9ac580U, 0x3dc8cf7fbd057298U,
  0x3d5afd7fbd0d0822U, 0xbda4dcc53d234bb5U, 0x3d683afe3d5ac452U, 0x3deda982bc0e62b0U,
  0xbd7410a5bd9f3765U, 0xbd295a34bda22bc9U, 0xbd48266dbdd53734U, 0x3b199559bd282493U,
  0xbe1d1fbdbd482707U, 0x3c7bcd10bb62190cU, 0xbd01d0243d9ba87bU, 0x3e064398bdcb8103U,
  0xbd44a137bcc6b676U, 0xbe740d78be120ef8U, 0x3b9cf1aabdb9839fU, 0xbd698af1bdd96c1aU,
  0x3d621b073cc7a3e7U, 0xbdabfbcebda01bb3U, 0x3d10bb3bbda815bbU, 0x3de4d557bd338b91U,
  0xbd0b2fa43d3e7fb3U, 0x3daac0ac3d3f1409U, 0xbe18df19bcec89e3U, 0x3d1c8826bdd5f1d5U,
  0x3c66803cbd67d9f7U, 0x3d7cdae9bd9afa1aU, 0x3c9cd3abbd3a2e5dU, 0x3d812c33bc42cfa1U,
  0xbdcc10873de56749U, 0xbd79116cbdac9e74U, 0xbd72225dbe02f190U, 0x3d655426bce887fbU,
  0x3d8550d2bd7101aeU, 0xbd96eb1b3d15a02eU, 0x3d9a250dbdd0186eU, 0x3d134ae0bd9f4947U,
  0xbdce4465bd821573U, 0xbd0429d53da6a7cfU, 0x3dd09652bd01ee44U, 0x3dcf3b0b3cd9d139U,
  0x3c9bf1243d230742U, 0x3c9bebb93d422089U, 0xbdced73b3d5ae6c4U, 0xbd60ac89bd99a67fU,
  0x3b02ab673d90c6afU, 0xbd93da963c0eaba3U, 0x3c9f5a10bd8e7040U, 0x3da138fe3da11709U,
  0xbdd9450ebd8ccf5bU, 0x3d4f28f5bd0216f0U, 0x3ba878cc3d570f7dU, 0x3d937818bd4b698bU,
  0xbde1713fbd8e7b20U, 0xbdf3affe3dc899faU, 0x3c6b1a553ca3d317U, 0xbcbe9cb7bdbb9671U,
  0x3c96563fbb08ea0cU, 0x3d714d35bdc7d905U, 0x3daca66d3db0c357U, 0xbd509e04bd9ca88dU,
  0xbd8cd8ec3d84e8e8U, 0xbd30db0cbd2d2eb9U, 0xbddc6c7a3d782818U, 0x3c91555a3cdf9269U,
  0xbca994e3bccddc4aU, 0x3d2cb08bbd73ff81U, 0xbdbfb5313d18291dU, 0x3d9100cbbd8bc2cdU,
  0x3dd1af96bd9693ccU, 0xbc960a55bd569870U, 0xbdaca81fbd90e115U, 0xbd668b42bde315adU,
  0x3d906b68bdd815afU, 0x3d044c93bd3f5dfcU, 0x3d838da0bc229e20U, 0xbc98d1393d447612U,
  0xbd4a10673da1397cU, 0xbda519d53d8c08c7U, 0xbcecbb52bd2afafeU, 0x3dbbefabbd89b4e2U,
  0xbdf061193d9606fbU, 0xbc1fd912bd2bf978U, 0xbcb535f9bc422419U, 0x3c7986f8bc8b0990U,
  0xbd331f4f3d271833U, 0x3d06ad533da8f2bcU, 0x3e01643f3d490d9aU, 0x3c1b44e43d179417U,
  0x3da0451bbdce7467U, 0x3d3cf5bfbca71c95U, 0x3daf8f17bc96bbb6U, 0xbd63d75f3db70ad4U,
  0xbd7a64fd3be6b841U, 0xbd9fa0943d2c9019U, 0xbd3e84143cec77f5U, 0xbd925e2a3ad4bf72U,
  0xbcf184133da10f74U, 0xbdabd3733d94e2c0U, 0x3dd3eee03d1470a0U, 0xbca3851fbd1427d4U,
  0x3cffdd3b3d2d974eU, 0xbdeed28e3d7af1e3U, 0xbd9dee27bd62fc1cU, 0xbde503b33ca73460U,
  0x3dd269ae3d9a4195U, 0xbd69694fbe2655e1U, 0x3ba732093df69335U, 0x3d80fe653daaa9a5U,
  0x3d2ae95ebd0d245cU, 0xbd9e60e8bd68aec1U, 0xbd40bc58bd9af3d4U, 0x3d79e3dfbdcd37c7U,
  0x3b545eedbda57764U, 0x3d9118273dc5b71aU, 0xbc0304a0bda112efU, 0x3d71e171bd86deffU,
  0x3d2aa11f3d962ab6U, 0x3c1a9e4cbdc8cff5U, 0xbdca810abc24f3cdU, 0xbd8ab7a33d8f9dd3U,
  0x3d77e7aebd537f4fU, 0xbc8ec111bd547d67U, 0xbcf22c893ac78c47U, 0x3de1db2bbd91a153U,
  0xbd1abbc83d4fb3dcU, 0xbdb642443d033e6dU, 0x3d845468bd80adcdU, 0xbdaa59cc3d5dd02aU,
  0x3c8babc53d65ee4eU, 0xbbbc08683d2865acU, 0x3db0222abdc3fb2cU, 0xbd8233c23d7044b7U,
  0x3d49ccbf3dba925eU, 0x3ce6da283d093e04U, 0x3e2091d4bd8a13ffU, 0x3d1ffb77bdb92893U,
  0x3d760f2fbd12aa17U, 0x3bb9cbb93c8e4ba8U, 0x3cbec9e9bda67b6fU, 0xbdac1c0a3de94384U,
  0xbb973a9abda45363U, 0xbd36cbda3d9780e7U, 0x3dcd3a6b3d049c79U, 0xbd90e2ccbd083b45U,
  0x3d3735213d1a8609U, 0x3ce36c61bd821513U, 0xbdc207f4bdb46f40U, 0xbc1609983d92d16aU,
  0xbd702eb4bd74a94dU, 0xbd7507a5bd4b3f8aU, 0xbd0b4b243cf62871U, 0xbd10027bbdc2f684U,
  0x3dc8a525bbfe8c78U, 0x3cb87510bdf5768fU, 0x3c95f83d3d985798U, 0x3d5ea1aebdae0826U,
  0x3d16aae5bc305f71U, 0xbd97b9063d84cf32U, 0xbde7e856bd2c7e82U, 0x3c2a99f73d940bf0U,
  0x3cbaaa0a3d4bdc64U, 0xbdd3b1123daeeff8U, 0xbc962858bd512fffU, 0xbd018a6abdd56c7cU,
  0x3df09a3ebdceb3c8U, 0xbd3609f4bd3c5cceU, 0x3c80141d3cc7f4c2U, 0xbd9f9fc13db2368fU,
  0x3dd288953d065e76U, 0xbd930b51bb909a33U, 0x3d38b2f3bdac881cU, 0x3d3fc919badc7c5cU,
  0x3ca1d9a53c8414c9U, 0xbddf9c71bdaf519cU, 0xbdc2600ebd9d2ce9U, 0xbc01b15f3cca403bU,
  0xbd2a071abcc95480U, 0xbd1fd0d3bdac30c5U, 0xbd26eeaf3dafc189U, 0xbd3acaacbd5e1479U,
  0xbd5eb220bdf77db0U, 0x3d681663bd6d6cb4U, 0x3d3e2b2dbdba6025U, 0xbd93e12bbcec389fU,
  0x3c8105b2bd80b7faU, 0x3d4fd3ef3d9c626cU, 0x3d9b386cbda0dbf9U, 0x3cce0b293e0ce3e8U,
  0xbdb84d79bd5f07e5U, 0xbd5603e3bcd08dc6U, 0x3d0648a43daa7202U, 0x3d5e44c93dd99cf1U,
  0x3d987f04bd9e377dU, 0xbd9b74933ccb20f1U, 0xbd6645d7bdba95e4U, 0xbdb1fe1ebdbf933eU,
  0xbd32a1f33d11191aU, 0xbdedae3cbdbc7e77U, 0xbdb32985be1c71b2U, 0x3cfe7d3abd281c5fU,
  0xbc9ce20ebddc9a52U, 0x3da5fa39bd88044eU, 0x3cfe53cdbde56a00U, 0x3d9685ffbd3deadfU,
  0xbe370e4cbd991e00U, 0xbe1c49cfbd4586f9U, 0x3c8846d2bd78a8f1U, 0xbc910462bd9f4bafU,
  0x3d54b9f83d43282bU, 0xbcfb060c3d864767U, 0xbcd678893d9b5dddU, 0x3b48116abd1760f5U,
  0xbbc85d2b3b9fbdc6U, 0xbcdcac3fbca163caU, 0xbe20e236be2ddb69U, 0x3d23bc06be0ff5a3U,
  0xbdd7f597bdac5726U, 0x3ae18f60bc4415c0U, 0x3aba15513daa75dfU, 0x3d66b2f93d19bb4cU,
  0xbd82dc593c84e80bU, 0xbdc4614abdfaf0adU, 0x3cc7ee81bcbffe0aU, 0x3d1cf8a8be2844e5U,
  0x3c4aa4a63c8e4189U, 0xbd5d288dbdbc2de3U, 0x3db23a0d3d41ca12U, 0xbd8eceaebcbfd766U,
  0xbdc846d73aa8cd1eU, 0x3d74e6c63cdf27abU, 0x3ddcde28bd97401dU, 0x3b1b8775bdaa335eU,
  0xbc833f74bc03280bU, 0xbde182043dac29cbU, 0x3d32fb8bbd350ee0U, 0x3d36dbea3cb13f5aU,
  0xbe0b8892bd92ce13U, 0xbdb03c3fbda1f4f3U, 0xbc3d058f3d1b08d4U, 0x3d0dbdc63dc6bbbeU,
  0x3d3c085e3aa30862U, 0x3d4a9c243d04eb5fU, 0xbdef6e6d3d9265afU, 0x3b3c7732bdae6945U,
  0xbd0fb0873cb15b41U, 0xbd79a907bd9e206dU, 0xbe20c3213d04ac12U, 0xbd9b5914bd0d76c1U,
  0x3ccc00b0bdb9c00fU, 0xbdbdf55cbb809e8bU, 0x3d8f796d3d0d0f32U, 0xbd3047a5bce88379U,
  0xbe2404b5bdc458b1U, 0xbe0f8286bd8cc2c7U, 0x3cdab58dbd31d45aU, 0xbdb928f2bde0ff50U,
  0xbd7be36bbcd6f565U, 0x3d85f2bebd5aa199U, 0x3d36a8f0bdadda87U, 0xbca976bfbd75673dU,
  0xbdd82beabcccf7a7U, 0xbded72d9bd2a3600U, 0xbda6e32abe0b9ceaU, 0xbded45f53d7791c8U,
  0xbe278478bda5f35fU, 0xbdbdacb3bd86ec9aU, 0x3bb8d949bd06ba1cU, 0xbcd4477b3d437c52U,
  0xbda390b8bd7013b8U, 0xbe2f16553c348a9fU, 0xbd0645e8bda5542fU, 0xbda209eabddc47cdU,
  0x3c48e0e93d4f944bU, 0x3d3db1e53d7b68dbU, 0xbd892b3e398476cfU, 0xbdbf86a8bd38889bU,
  0x3d275bfbbdcf0545U, 0xbc986fa73dacc942U, 0x3da9cd303b80a5c0U, 0xbd32c6f5bd96409bU,
  0x3dd988dabe1a3203U, 0x3d9430b3bd1b11c1U, 0x3d009720bd9fbc0eU, 0xbc9f2f7e3d5b9bedU,
  0x3be108033c9dbe19U, 0xbde08510bdeb3d7bU, 0x3c8a32f93d0b9b14U, 0x3c22dd5b3d330e6dU,
  0x3c337bc23da0275cU, 0x3c9b59edbd86fe12U, 0x3c7a9ea83d51dc69U, 0xbd0abd71bdba15dfU,
  0xbd2c46123a6b84f8U, 0xbdb24632bd7ca46aU, 0xbd26ad973c936ceeU, 0x3d9d20a4bd1ec1d2U,
  0xbe07cd6cbdfb0605U, 0x3cda13cc3d60ef54U, 0x3caa5ef43c3129e5U, 0x3d1878ea3ddc89b9U,
  0xbe2bdb3fbcbb81d5U, 0xbd356a48bd3eb676U, 0x3c83fe9abcea8b1bU, 0xbbaab6153c32a17dU,
  0x3dc064453cc1b865U, 0x3de5bef93d936b59U, 0xbd5c7cca3a51126bU, 0xbcca50f53bbae446U,
  0xbe38dd87bcf2b7c5U, 0x3dbc8f533ce496fcU, 0xbce137933d951bf4U, 0xbc557627bdd944c3U,
  0xbd9d2dd6bdc2a728U, 0xbbc0474f3c14e79eU, 0x3da6a7cfbd81b7fcU, 0x3d79ba56bd77fb2bU,
  0xbe495ae93d5b8be1U, 0xbd778684bdb3f818U, 0xbe0468253d152a37U, 0xbd3a31c13d48d715U,
  0x3dc0538f3cc578baU, 0xbd9e2f8a3bc29afdU, 0xbd8054923d705a5cU, 0x3d3b3192bd08d7f0U,
  0xbd6b246f3cbefde5U, 0xbcb7426cbd94c434U, 0x3de2839dbc69b734U, 0x3e235faf3d1b4f1fU,
  0x3e360180bdbb6823U, 0x3d567d033dd2631eU, 0xbd4f59cdbdd617a4U, 0xbdf9b8b1bd3ab9e7U,
  0x3e2c3ba2bdd7cbd9U, 0xbdae5fc0bc35239fU, 0xbd331b973e21603cU, 0x3d7965ca3e2baa85U,
  0xbc13ca1a3b63069eU, 0xbcd5f12b3d0e820eU, 0xbe7df7dfbd8bc582U, 0xbda165393dd98914U,
  0x3dae63f9bcdf1461U, 0xbde99d11bdf59743U, 0x3da477e6bc55b532U, 0x3d5f0257bd24ca22U,
  0xbb6d0b683d4832f3U, 0xbd8be1913caace75U, 0xbdffb885bda038d6U, 0x3d37666c3de49814U,
  0xbdfa6a12bd8bee7dU, 0xbd7bc864be3d2c5aU, 0xbe096cf03e2ca46fU, 0x3d816b5b3d0f4528U,
  0xbdb7b7d8bc3073c8U, 0xbdd3208a3bf42d06U, 0xbc307338be137792U, 0xbda9864cbd97fc18U,
  0xbd94cb30be0b5cacU, 0xbdc8bc9ebdfca5a3U, 0xbe1b700abe362c7aU, 0xbd9e82f9bdf45aa8U,
  0xbd63da5cbd365a9cU, 0x3ca8a1ddbe1e32baU, 0xbe1b74bebdd0f820U, 0x3b9098d4be0d96ceU,
  0xbc9d44e8bd37567dU, 0xbd139015bd60c9f0U, 0xbd3e06a4be1491faU, 0x3ca73cd0be50fa3eU,
  0xbd5780afbe268e93U, 0xbe29209dbc23595eU, 0x3d1e0541be116119U, 0xbcc57641be0e466eU,
  0xbd0627683d25d43bU, 0xbd57f637be1cdbb8U, 0x3e49a9c63d06ce86U, 0x3de5fab43da0b07dU,
  0x3e05e94bbe228197U, 0x3d9668e03e3062fbU, 0x3d60ba47bcca123dU, 0xbe03a20cbcf4004cU,
  0x3e02489cbd52ed78U, 0x3d59df713c13033fU, 0xbc1238d73e2a79f1U, 0x3c3306693e2ab3eaU,
  0xbb826e91bd87b3dfU, 0xbcd799a23c6b5a64U, 0xbe06c6adbd345a45U, 0xbd6863ae3ddc330aU,
  0xbdd614fbbe1b43b9U, 0xbd43902b3c9546d5U, 0xbd061954be0975d4U, 0xbdb6172d3d42d3eeU,
  0x3d9adf47bdd515a3U, 0x3b6463dc3ca272b0U, 0xbd2dc41fbdc6c2d3U, 0xbc1c81643de1c9b0U,
  0xbd3f9e43bd64bf20U, 0xbdbd6a0bbdb8dcf2U, 0xbd9ae2a13c2b07c9U, 0x3c720094bd4c1fbfU,
  0xbcfa4ec4bd8faf7aU, 0xbe0524853d184cd2U, 0x3ddf372cbd834c63U, 0x3ccf119b3ca00253U,
  0xbdaa5991bb8c4d34U, 0xbdd2b59dbd8bf02cU, 0xbe6dacb0be3ed766U, 0xbe8198fbbe18d002U,
  0xbdf84dd53d2abf9cU, 0xbd883a6bbd6bd614U, 0xbda76cff3cddff50U, 0x3d2442abbd9c1f21U,
  0xbdbb45f83d7c8633U, 0xbe2a6501be19b866U, 0xbe028a40be41bc22U, 0xbd6c47dbbe83f377U,
  0xbc14c07abe187cd3U, 0xbe3365ffbd4d5858U, 0xbc68bccebdebe312U, 0x3cf084c7bbda741eU,
  0x3d9827273d8fe621U, 0xba686e48bdaf0cd1U, 0x3ddaa74d3e2a2957U, 0x3ddd1a5e3d4ea378U,
  0x3cebb260be0524fdU, 0x3d2182653d82f253U, 0x3d4df8debdb29510U, 0xbe17e7083dc57d5aU,
  0x3db3e83fbd6e5641U, 0x3c3967a3bd32fce3U, 0xbca601f53d0b7b7eU, 0xbbb008683e1098c2U,
  0x3de9cdc3bc97a96dU, 0x3d0cf304bdc8141dU, 0xbe30a7fe3ba79ee4U, 0xbdbaa2e93d969aefU,
  0xbd720824be2e8291U, 0xbce5471abd9adeeaU, 0x3cbafcd0bdf265e8U, 0xbb8b42f9bd75fdf4U,
  0xbd9599c9bd6e51c8U, 0x3d6127443d9b98a3U, 0xbdac0fbe3d122b36U, 0xbd51415c3e19012dU,
  0xbe03cb3fbda9ca58U, 0xbe21e076bd939571U, 0xbd91b3733e129f3eU, 0xbda7675fbd6c7f4eU,
  0x3d913d2cbde9d9b6U, 0xbe00d5233c5f4511U, 0xbc51a586bdf266e3U, 0x3dad369cbd5b86ceU,
  0x3d662978be110555U, 0xbe53719fbd917543U, 0xbe9bb1a1bdf8250cU, 0xbe10d022bce25a52U,
  0xbdf08bafbc4dd8a6U, 0xbdbafba6be3b9c8dU, 0xbd391252bbbf660dU, 0x3d9fe683be30a3eaU,
  0xbcfc180f3da4dc56U, 0xbde12fdebe5c0b5cU, 0xbdab2a69be01c666U, 0xbe2af1ebbe083bdcU,
  0xbc9a2027bdd7c039U, 0xbe0ad72a3d91413bU, 0x3cb544b43cd87dc5U, 0x3da82c13bbcf526aU,
  0xbcb5d0f8bcaebf94U, 0xbde205af3d8fc2d6U, 0xbdb43bd13b76b4d4U, 0xbcafab503b179a37U,
  0x3c4d8a90bdd36d72U, 0xbdfd3d7c3de809d1U, 0xbe0e5cc83d0e8455U, 0xbba1f77fbc3683dbU,
  0xbde9f7823dc3340cU, 0xbd867757bdd9df30U, 0xbd9fec163d58c0b8U, 0x3d1be4dcbd66b998U,
  0xbd87f442bdd69c66U, 0xbdd880a7bd74947dU, 0x3d411b23bdb9868dU, 0x3c54b0ab3d08d282U,
  0x3bc7faaebd2bb874U, 0xbd07b34abd01698dU, 0xbe0db8723d42926fU, 0xbdd64cd83d73ae02U,
  0xbcc2821e3d78e3c4U, 0xbc0f77c33d6ca621U, 0xbca4e407bd92579eU, 0x3d9743b0be0379abU,
  0xbde4b0363c78e804U, 0xbcc4ef6e3d4d53ddU, 0xbb98410abe2ef26fU, 0xbc919015be0828b8U,
  0x3dbb67033cb224aeU, 0xbdcce1be3c380dedU, 0xbd92be133c08c1f0U, 0x3d03a2c9bc31847eU,
  0x3d9d9b923de8f08cU, 0x3ced37093d596ae7U, 0xbcd94df23dc8b319U, 0xbc35447ebd4e56b7U,
  0x3ca7df67bd0381a9U, 0x3d973f873dd68685U, 0x390b3272bd40b2d5U, 0x3d25554b3d2105fbU,
  0x3e087fc13e03d932U, 0xbcc41cb93db53c4dU, 0xbc273ef43dce81cbU, 0xbd9698dbbd33d836U,
  0x3de6deba3d114a2fU, 0xbcdc7e5cbc506456U, 0xbd0eb5593c5b7487U, 0xbd07d1703dfd0454U,
  0xbc0a3384bdee6376U, 0xbdc181513dac7421U, 0xbe1af763be1b57daU, 0x3dcd81f6bce47475U,
  0xbd8084723b069ed5U, 0xbc678006bd149ee0U, 0xbdd1507abb2cc7e5U, 0x3dab922ebcef3180U,
  0xbe1aabe0bd78485dU, 0xbdc31110bdc2be92U, 0xbe0079843cbb97c4U, 0x3c1b128c3c9cdbeaU,
  0xbdc0bf09bd1fd0dfU, 0xbdae27ce3dd15ca3U, 0x3c4d7a0d3a9b15a4U, 0xbd624b65bde0fd4cU,
  0xbba040f3bd841fb1U, 0xbe1091f1bd670199U, 0xbe3795acbc692574U, 0xbb625c5dbdd36036U,
  0x3bc08b93bdf46e15U, 0xbdda492abce375dcU, 0xbde87d98bcb0aa67U, 0x3d2b1121be244e30U,
  0xbb6d5f9abd9e424fU, 0xbde69070bd900290U, 0xbddfd526bd33144cU, 0xbe1dc66bbe2adcb1U,
  0xbdd75890bdc32192U, 0x3d3ffbec3d63bc16U, 0x3d90cdf23c8b8b5bU, 0x3d88f5f6bde2f7a5U,
  0xb8beb620bd15ad5bU, 0xbd91beb13cce37f3U, 0x3dbc5bb7bc1290d2U, 0xbe0955b9bcdaeae4U,
  0xbcca51e0be1671a3U, 0x3de4850bbd7a96a0U, 0x3d1c00d23dbc0baaU, 0xbd7e73043d8501cdU,
  0x3d707c083de2c57cU, 0x3e2a57653e25d9d9U, 0xbcda8d0cbdc5f085U, 0xbd1626bcbd85a841U,
  0x3e016e79bd2b81cbU, 0x3da7f4e1bd72b0faU, 0xbcc9dfe3bc609468U, 0xbd663cd23e0ed285U,
  0xbd8e9921be17c9c1U, 0xbdd09c3ebd7ad0deU, 0xbd9720b8bdb1bf85U, 0x3dff0a1f3c4f70c0U,
  0xbd90aca9be005ae4U, 0xbe0e8bdbbd80a0c2U, 0xbdd63ebdbd19b532U, 0x3d81f02ebd8292bbU,
  0xbdff03813dd33a7dU, 0xbd910850be1a3bbbU, 0xbe4347713da6227fU, 0xbe14dc513cb4aa62U,
  0x3d43ae11bce7dd92U, 0x3d3d10413da6b3ebU, 0x3dbdf59bbe128b9fU, 0xbdc7c282bd297f0dU,
  0xbda27163be2540c2U, 0xbcc02c8dbdb0cc95U, 0xbe23d81cbdf026b0U, 0xbe219f34bd6ae4e2U,
  0xbc72a98f3d3800f4U, 0x3c0b95273ada4c28U, 0x3ce0c036bce51524U, 0xbd614c173c7a0233U,
  0xbd75facebca01fd6U, 0xbde7aad3bc2d9222U, 0xbdbef3c9be3f5b23U, 0xbe1750c9bde308efU,
  0xbd53d438bd9f938cU, 0xbcf167c93b7cf9d3U, 0xbcb79a33bd30be4eU, 0xbdfeb412bcf7a316U,
  0x3d92b1673ca31761U, 0x3d05d289bdc5b93dU, 0xbbf6fe11bcd65c62U, 0xbda777a83dcc5592U,
  0x3c4fd214be29ed7cU, 0x3dc5d5323db23c61U, 0xbd4ad8983d80bc8dU, 0xbdc100b43d6741c5U,
  0xbc72ea333dd286f4U, 0x3e1c1bf63de7201fU, 0x3deb7b6cbe126776U, 0xbd146619bdd9cdd4U,
  0x3e50195d3e04ede0U, 0xbca87e993ca74507U, 0xbd99c430bd2a122eU, 0x3ca6f8703dbabc21U,
  0x3d11c3a33cfc56a8U, 0xbcc194d0bc9dd1daU, 0x3d428e6dbd221915U, 0x3d8d220abd015555U,
  0x3db0db5a3aed22baU, 0xbd9076e63d8e93e6U, 0xbdc75cdcbd9f1ce6U, 0xbd3a0b1dbcecdbdaU,
  0xbdb1f1273d45ddeeU, 0xbdd35f753d7cc5b1U, 0x3cc72f793e05f022U, 0x3dadb1453d387973U,
  0x3d5633c13da08123U, 0x3c4cd4433d59466cU, 0xbdc48d1cbd85fba0U, 0xbd1ab6e43d0f3e33U,
  0x3ce09f83bd9a98d2U, 0xbd780d2dbde1c2baU, 0xbcb2ec5abe357db3U, 0xbc8918f5bd182e72U,
  0xbdb17758bdfa0ffcU, 0x3c2b7c6bbddfd99aU, 0xbd9fd830bb947ff1U, 0x3d6e940fbc644bceU,
  0xbd548a933d6afd3aU, 0xbd92e60bbe3304e5U, 0xbd14a43d3d3e41dbU, 0x3c88d3203d9f351cU,
  0xbdbd24a13d6e1eccU, 0x3cfe2323bdae6875U, 0xbd645c9cbe319059U, 0xbd0ad60c3c8423adU,
  0xbe0cfee4be170455U, 0xbd94515f3ceab88bU, 0xbe49efd8bdddcb20U, 0xbe16e6c1be0941bbU,
  0xbd4bcd53bdb28367U, 0xbdf2461ebe2138e5U, 0xbdcf4df93d01558aU, 0xba90548abd0c063fU,
  0xbd88f8f83d54b686U, 0xbe3646b2be44374eU, 0x3c732a5dbdb4e283U, 0x3d6989d4be4e68f3U,
  0xbcd5c5e1bd0ecba4U, 0xbdad87783bccf24fU, 0x3d9a4434bdfd4ac0U, 0x3e0a311ebdb35fa1U,
  0xbe08d82c3d87743fU, 0x3d5693a33bf9a38bU, 0x3d0c92caba311feaU, 0x3d9c9d56bda6ae04U,
  0x3cc4e7e2be26fca6U, 0x3d6d9c0d3df6865bU, 0xbdc4cd02bd9219b9U, 0xbe3eeaac3d62d5b9U,
  0x3d6da33dbe117d47U, 0x3cfb1dad3d97a783U, 0x3dd6ff963dbbf21aU, 0x3d582e703e15fc04U,
  0x3d842a943d86731cU, 0xbcc62a09bcdbff05U, 0xbe1c3f8abc99ee91U, 0xbd498b93bd1dcb26U,
  0xbe21d329be067fb1U, 0xbd6677203b7304c7U, 0x3d630bd5bcbb6146U, 0x3d94bbd5ba88786eU,
  0x3c2af56dbda16b7bU, 0xbdeddc7a3d9e3f41U, 0x3d81e8e43db4c150U, 0xbda5a7b93e067959U,
  0xbdfddaac3cb1b4e9U, 0xbc541311bdc45657U, 0xbdfa96c4bd18c93cU, 0x3dd12d8b3dcb09a0U,
  0xbce2f331bd3cbe49U, 0xbdae3cbe3ce26f9eU, 0xbd00a085bcf7e20cU, 0x3ca6847fbde8b6bfU,
  0xbd99fec9be18809cU, 0xbdaf2e853cd47106U, 0xbe83e99cbe5bcd40U, 0xbcaccbdf3bcf52c8U,
  0xbe26c2e2bdd30b2fU, 0xbd6661d5be4864f7U, 0xbcd745ddbc3653a1U, 0x3d4fc1753c273a3aU,
  0xbd72cdb63c22b9edU, 0xbe62b3a7be547250U, 0xbd1d3f01bd036b36U, 0xbcf9b03dbe408cc7U,
  0x3c8156a03c85edd6U, 0x3d320ea43d9e1d5fU, 0x3c36725ebcada5c2U, 0xbbbdead03caf7beaU,
  0xbe1925bf3c40ec77U, 0x3dd54f20bd241d7fU, 0x3daee4f33c2e2245U, 0x3a64e2c5bd2a9875U,
  0xbc37dc44bd75a098U, 0xbdb789883dd4750bU, 0x3d28fa61bdc5e993U, 0xbe001e39baa7d389U,
  0x3dc05539bc92b0aeU, 0xbd833f0e3d9930cbU, 0x3d85d0203d4d4b43U, 0x3dedb0283e11a8cbU,
  0x3dcf5a9e3d69f6b3U, 0x3dc3bce33bd7f3b7U, 0xbe464ecfbc9f825bU, 0xbdadc9e3bc58450cU,
  0xbe13b9cabd88d3beU, 0x3da77c6e3c0a9929U, 0x3d5a737fbd9b1da8U, 0xbd799ee1bd743162U,
  0xbd6f01c6bc0a6b5aU, 0x3d83cd11bd180251U, 0x3d69ee723d91d672U, 0xbc35cdf93acad308U,
  0xbdea3859be08271dU, 0xbdc46506be011c75U, 0xbcab86683e114b9eU, 0x3d6aaaad3da0a421U,
  0x3ddedbefbdb1d70cU, 0xbdf7daecbd907771U, 0xbdd3c04cbe2121ddU, 0xbd0a311dbbc0d35bU,
  0x3b9e7d3dbe0cf906U, 0x3cf14953bd6e5341U, 0xbe05ddadbde52662U, 0xbe0815f0bdbb1d17U,
  0xbd8eca4abc3747dcU, 0xbd5281d2bdcd806cU, 0x3cbd4d52bc937fd5U, 0x3e004fe13a08584eU,
  0xbd80034dbd0e49f6U, 0xbd3a7d28be11e8abU, 0xbe239c91be22444bU, 0xbd198526be0ad87eU,
  0xbd380248bb657a06U, 0x3d19c949bdc64846U, 0xbd8b5b18bde769f3U, 0xbd9f5574be15e100U,
  0x3c407463bdf89054U, 0x3dd503233cb4d22cU, 0x3d35d18c3c418b12U, 0x3c9af9df3d1042a0U,
  0x3e683756be463662U, 0xbd1953be3decffdbU, 0x3ca04d3ebd940c7aU, 0xbde44a4dbd087918U,
  0x3b98f5823c1c36c1U, 0x3cbc971e3ce2159dU, 0xbd8239e83da48bc6U, 0x3e3c35de3d9a3757U,
  0xbcaa773cbd18d04dU, 0xbcafc43e3dbd64d6U, 0xbd8b19a8be0c78d4U, 0xbe201d22bd9b9475U,
  0x3d55ba76be2e903dU, 0xbd81bcecbdc5eaceU, 0xbda0e936be1f6f48U, 0x3e0101f03d90c4deU,
  0xbd040d25be36eda8U, 0xbdd63a013ddcf60cU, 0x3d471061bd3eb45cU, 0x3c8d04803dfd6848U,
  0x3d1aa2b7be0c0b6bU, 0xbe35644dbe429ed1U, 0xbb78d8a33db76144U, 0x3e235f203d92f12bU,
  0xbe190162bd14012aU, 0xbd427a58bbc251b4U, 0x3cecb21abdaa0f25U, 0x3ac85014bdabe4e1U,
  0xbd333e03bda14e0bU, 0xbe148c96bd23da0fU, 0xbe5488f0bda6517dU, 0xbe0411f7bdb32978U,
  0xbd947379bd3fe395U, 0xbdb38491be2cf926U, 0xbdfe0a743c1276b0U, 0xbc7ee331bdfbf834U,
  0xbe0ea6a9bd5c7d8bU, 0xbe7d8c72be8a42abU, 0xba64ce86bda334e3U, 0xbd591093be295628U,
  0xbe0403bfbcfec297U, 0xbe4b54ee3a1ed25eU, 0x3cd6012abd97afc5U, 0x3dc20b48bd9399b4U,
  0x3da42d2bbdcd35f2U, 0x3d8ca93c3da6a9bbU, 0xbd7fa5bf3dcccbe6U, 0x3d0484eebd3aa615U,
  0x3e41dd94be2d0099U, 0xbd5193d63dbad40eU, 0xbd4362b13c8386e8U, 0xbe50ec5f3d57f7d8U,
  0x3d72b892bd82a3c5U, 0x3da84fb9bd095b34U, 0x3d351008bd59078dU, 0x3e351a34bd40dc34U,
  0x3b9e2cedbd9a2d26U, 0x3de5eb3fbd44e59bU, 0xbe0050d2bcd9e90aU, 0xbdda98cabcfb32bcU,
  0x3d71e933be6c5c55U, 0xbe0d30453d59719fU, 0xbdf9988abe09ac72U, 0xbd8e3ffcbde3a89eU,
  0x3dc9ff1ebdfff3deU, 0xbcdebd023cf1dc92U, 0xbd88538cbcaf8853U, 0x3cf1ec553d401377U,
  0xbd137d843d532e12U, 0xbe23f42cbe1a722eU, 0xbd8d96913dab77bbU, 0x3db81fd83de099d2U,
  0xbdb5bf93bdf313c0U, 0xbda304a23cd847dfU, 0xbc88948abe28d76aU, 0x3d330735bddd2c39U,
  0xbdc918acbe0ed005U, 0xbe357bc3bd03f7f8U, 0xbe1a94c7bdcc5477U, 0xbe6769683c17a495U,
  0xbd83291abd8b9757U, 0xbdddded2bda5c244U, 0xbdd9d650bbccb2dcU, 0xbbdf1a5bbdb32d61U,
  0xbd8a4930bd2351aaU, 0xbe8333e3be7a1476U, 0xbd8c1ca9be3604c9U, 0xbdd18bf3be365854U,
  0xbe612954be0d136dU, 0xbe0ae193bc976bf1U, 0x3d92fd65be099145U, 0x3da22b55bde8d5f0U,
  0xbdd36dd2bdbdf055U, 0x3dcfe7403d31ff15U, 0xbc4945f53df016a9U, 0x3de0a274bd14f78fU,
  0x3e2fd4bebe18bbabU, 0xbd0ff5973e0a9c4eU, 0xbd5f031cbda7d3bdU, 0xbd9a225d3cd60091U,
  0x3e0e24303c85dc46U, 0x3d16ff2dbd30ab08U, 0xbccc04cbbd553576U, 0x3e33ce9a3e0555bcU,
  0x3cd76a06bb570fb4U, 0x3d4f3678bd28015eU, 0xbe2f9e89be066087U, 0xbdafaba1bc89b90dU,
  0x3d7652fdbe817f23U, 0xbc849445bd34355dU, 0x3c9408bdbd733bc4U, 0x3db77c0cba8ba6ebU,
  0x3d0d2cd9bd5686deU, 0xbd5964583e045e5fU, 0xbb3d40e23d213cdeU, 0x3daaf2e0bd355b73U,
  0x3da520973cb30422U, 0xbdfce862be7c840fU, 0xbd8656603c47b06aU, 0x3de176b83d8bd14dU,
  0xbd6cb5a6bd87b33eU, 0xbdda1116bd493c20U, 0xbdae878dbce54282U, 0x3d71edd3be0ec010U,
  0xbd817194be3d14acU, 0xbe4747553dc1ae6cU, 0xbe9a327fbd669fefU, 0xbe3927afbe0350e5U,
  0xbd3a67c7bc554c7bU, 0x3d5be29cbdadedecU, 0xbd747e31bbebdca5U, 0xbce4bc47bdffce13U,
  0xbd47f5d5bd88bb68U, 0xbe8597b5be67e49dU, 0xbe370902bd8c354fU, 0xbd9feb24bd6b4c43U,
  0xbddf1f7b3c3a5a4bU, 0xbe679e573cee6279U, 0xbd49a9e1be1f94b6U, 0x3c4d47dfbd412ec7U,
  0xbd2ee0a73deb426aU, 0xbcb4b02c3dd794f8U, 0xbdec6c883c470738U, 0xbd8d0662bca7655eU,
  0x3a78fcc1bd0fa73dU, 0xbd6b088e3da63e17U, 0xbd9e52f0be066d8cU, 0xbd37e2dc3d7e1c6fU,
  0xbd00d5bd3dafeafeU, 0x3dd6d2a3bd687582U, 0x3d75c5de3dfe67b3U, 0xbe2bc2fc3d779127U,
  0xbd7ff8593dc1150bU, 0x3d7c53153c741688U, 0x3df333f33de618b6U, 0x3dfb8a65bd2762fbU,
  0x3cc30dc2bdb215c6U, 0x3dd4dc123da13e14U, 0xbd546f993d51013cU, 0x3da61d49bd615cd8U,
  0x3ddba437bca7d2cfU, 0xbc5445763dc0ff73U, 0x3ab5f5833c80ce59U, 0x3d3b74963d10a633U,
  0x3cf91fc2bd33c21aU, 0xbce80dbabcf802feU, 0xbd8599183db4303bU, 0xbe0cc98f3d1662c6U,
  0xbd2ab12d3dc1c2e0U, 0x3d48cb293c5a6a88U, 0x3c9611bf3cd5d29bU, 0x3d701ac1bcb1e966U,
  0xbd9aa7f6bd88ecc9U, 0xbd1931073d1190eeU, 0x3d2280d63df972aeU, 0x3df69413bdc03cb4U,
  0x3ce61be93adfac20U, 0xbd79279e3c4cd862U, 0x3d9a46713d8dc81dU, 0x3dfac5163d43e78bU,
  0x3c30de6e3c4886d6U, 0xbdf08c79bd7a09eeU, 0xbdf8c1bdbdd19078U, 0xbdd592273e0a3a67U,
  0x3cc4afad3d676ffeU, 0x3c2f334cbccac24aU, 0xbd51cacd3d9f405eU, 0xbc3aaf9bbd9ffd8dU,
  0x3ce937a43d2a8122U, 0x3d961b0b3dafd0fcU, 0xbe1645d73d57d615U, 0xbd8515343d2e2486U,
  0xbdf646893c32a214U, 0xbd779a6cbcaef09eU, 0xbdb34dcd3c2f5810U, 0xbdb23d073d6e491cU,
  0x3d4a70853dfb9bb9U, 0xbc0ad4e73d1340dfU, 0x3df7a8183d8f3625U, 0x3bbbcebebc37df47U,
  0xbdc5164cbd046e48U, 0x3dde0eaa3d8705d3U, 0xbb8924fe3e3268d4U, 0xbd2f68f03ce7b2daU,
  0x3d5b24cdbd9c9b44U, 0x3c818f633cd1154dU, 0x3d431c6f3d0c95f7U, 0x3d8e9b5e3c96a1d7U,
  0xbd360428bb43695aU, 0xbc823f403d873becU, 0xbdc058e5bd90c7fdU, 0x3d3c15e8bd959c9eU,
  0x3d1fdc453dc005d8U, 0xbd596458bd98d3e0U, 0xbba9aa87bdc73906U, 0xbd6fedfb3d01e9d8U,
  0xbc398c7ebdeaa01fU, 0xbc403e143d9d8f0aU, 0x3d9251a3b952f694U, 0xbda72d193ca70f92U,
  0xbd919767bc71e1b7U, 0xbd93ba1dbd539600U, 0xbdbeae753bf17482U, 0x3d5b0272bd93d39aU,
  0x3c1367b93e215aeeU, 0x3cc36c0e3d98cf5eU, 0xbd82f3c53db1b1f4U, 0x3d05c44dbcc4a791U,
  0xbd68f3043b0f7f7dU, 0xbdc1f4f5bcf2a569U, 0xbd6735ea3cdbdbceU, 0xbd6c372abc0cab0cU,
  0x3b876adabd91546fU, 0x3cb55f803cf58930U, 0x3d99f658bc71d247U, 0x3c8e7073bc9b4a6bU,
  0xbdac5e553e288800U, 0xbcaf59173dddc45bU, 0x3d2f347f3d20ceb8U, 0x3d570e25bcb5aae7U,
  0xbda712383c027066U, 0xbdb5193dbd776e21U, 0x3c8738933cd81998U, 0xbcb49289bca0a582U,
  0xbdeb03323d3cea97U, 0x3d025140bcad6033U, 0x3e13a4a03d81d258U, 0xbe0e5626bdad6f91U,
  0x3d53098a3e16527fU, 0xbd3984cebd490a6cU, 0x3d09a5c73d77851aU, 0x3dee12debd143198U,
  0x3d0d475a3d3a0c46U, 0xbd989fb1bda954aeU, 0x3dd0ca7c3dbbaa8bU, 0x3d1e5d75bdd027ffU,
  0x3de88f873dda18b9U, 0xbd877aa7bd552060U, 0x3b94b7d03ceec3edU, 0x3dcac036bcb1b12cU,
  0x3b8745ec3dc501cfU, 0xbd0c506cbdd33362U, 0xbc876dd8bc908dbbU, 0x3b2bc806bd2eab69U,
  0x3c164491bd9e0998U, 0x3c98ffe13c94c3ecU, 0x3ce40132bd7b9192U, 0x3d3e4dedbd87d805U,
  0xbc864cd8bdbba38eU, 0x3dddba9bbbd75d6dU, 0xbc91144abc23db9eU, 0x3cf0ef71bd8ffe71U,
  0x3c0b915c3c882205U, 0xbdc06fc33d3e9502U, 0xbc4752963dbc5c5fU, 0x3d9c3cfe3c92550fU,
  0xbcfa9a4dbd4f2116U, 0xbcc28c193de71a12U, 0xbdf36cefbd4588b4U, 0x3d4d05563de9509eU,
  0x3d09c5b3bde1e8adU, 0xbd927ff93d246d18U, 0x3d0ca156bdb6add5U, 0xbd6e55cd3dd63353U,
  0xbd173a24ba1b3d22U, 0x3d16486ebdfb0da9U, 0x3d90202a3d091db3U, 0xbd77ecf0bc21daecU,
  0x3d6c925ebd945638U, 0x3d3b5a4e3dc0af62U, 0x3d4293bdbdf73911U, 0xbe4248f43cbfbd4aU,
  0x3e071641b98ac545U, 0xbd81c57a3d364dc6U, 0xbd93841a3bb5e248U, 0x3db94d61bcec52a0U,
  0x3e0528b8bde83985U, 0x3dca227d3d389dc2U, 0xbe2d1cf4bcd61f39U, 0xbe6392e93de0866dU,
  0x3dc62d81be064bebU, 0xbde67b59bb8ec0b4U, 0xbc8d35f9be0b81caU, 0x3d2cfbac3cbd7276U,
  0x3d6074acbe29cd55U, 0xbcb2863f3db9adfeU, 0x3d3b79cd3cdbc665U, 0xbdd574303e0f2104U,
  0x3c4ea14bbe0c97dbU, 0xbdbbea37be042b86U, 0xbd176fe53b02f58bU, 0x3d599c9e3d81e605U,
  0xbaf3131abd4df26bU, 0xbcc3c60dbd191daaU, 0x3d3502f5be22c9e3U, 0xbe2009f4bd6137aeU,
  0x3cfc8bbebe4fe17fU, 0xbe7c8120bd8e0e50U, 0xbdf898fdbe74c9d0U, 0xbe0ca3c0bd7ae677U,
  0x3c4e4d963d303a7dU, 0x3d266373be16b49aU, 0xbd3fb6fabd09852cU, 0xbc4b1aefbe0a34d9U,
  0xbd718e553dbb882aU, 0xbdff70b4be70379bU, 0xbe1ba9ebbd85b013U, 0xbddcbafdbdec4cd0U,
  0xbbc7667abdb34cdfU, 0xbdab64b6bd139e86U, 0xbc0b04f5bdd13969U, 0x3d5886a6be43b931U,
  0x3d62ba7cbd3710c0U, 0x3d7493fbbc7bfa4eU, 0x3db012dd3e156336U, 0x3d9f0a2c3df503b3U,
  0x3d3a8eacbd01c706U, 0x3d7545b73db61916U, 0x3d704a4abe0025adU, 0xbe98b89fbe0730f4U,
  0x3d4707a6bd83c599U, 0x3d53d3a93ca63c36U, 0xbd7e59b33ddfe279U, 0x3dbb6adb3de60cd0U,
  0x3df250dfbc122647U, 0x3d5a4c8abda9f39cU, 0xbd5d02aabbfbad6dU, 0xbe2ca1c73d6ca3c2U,
  0xbd954aa7bc9aad05U, 0xbde434efbd993dacU, 0x3c8821163d49a2f0U, 0x3d8dccb3bc7c8508U,
  0xbcabd6c6be645a8eU, 0xbdc485fb3dd1782fU, 0xbd196420be01c5bbU, 0xbe08464d3e123e6dU,
  0x3ddcf4e4bc892d06U, 0xbc823b92be4a535bU, 0x3da316923e20fa4cU, 0x3dd24326bc1c2331U,
  0xbc8bd8b7be38069cU, 0xbe3254d53d91ae2fU, 0xbb046b38bd2f3f59U, 0x3d12d15e3d241157U,
  0x3cb933a9bd8ec54cU, 0xbe8d7def3d0d87f2U, 0xbe125889be862ab0U, 0xbe0e3744bd9ce133U,
  0xbd75f8a7bde0f80fU, 0xbe1d62b6be56438fU, 0xbe093ec13c2fe63dU, 0x3e0934b3bd53c807U,
  0xbd449b303bac6d7eU, 0xbe09d165be796805U, 0xbdf8bd53be69ddb7U, 0xbe05fd1abe3d9705U,
  0xbd3c507bbe397cbbU, 0xbd6da2fdbb5b6899U, 0x3d820d22bd8cf04aU, 0xbc5f32b7be1158c8U,
  0x3c883585bd90e2f8U, 0x3be204de3d0bfc01U, 0x3d559c3a3e14ac3eU, 0xbd55f8fb3df4c7c4U,
  0x3db1ba48be12ef76U, 0x3c8215163e033311U, 0xbd3f607c3ce77d87U, 0xbe9c225bbe0a9fffU,
  0xbce7bd49bc138d40U, 0x3d042f443e0df361U, 0x3dfc582d3d5e199aU, 0x3bc340ff3c93f657U,
  0x3e359ea3bd8bc78aU, 0x3c414dccbb446a81U, 0xbe57cc4cbe077eadU, 0xbdb1e0adbcfab1ddU,
  0x3ddef10bbde1b8d3U, 0xbdfbff76bd1b825bU, 0x3e165efa3dbb514eU, 0xbc9438dcbcb378a6U,
  0xbc43ec9ebd94db74U, 0xbd712e993db3d365U, 0xbe0757bebd9bdbcaU, 0xbdaa94fd3dc4b161U,
  0x3db90e51bd4f00c0U, 0xbd81cd86bce06efaU, 0xbcb1629a3e097ef7U, 0x3decd3a33b5916d2U,
  0xbccddf4ebddd467cU, 0xbd8c735e3dad8718U, 0xbd6bfd6bbe065719U, 0xbc74274bbd91b221U,
  0xbdd1cae9be1a5a17U, 0xbe479c453c1638beU, 0xbe48d5e8bd9ce928U, 0xbe2c092dbd78f913U,
  0xbe245096bc6c6cd3U, 0x3d27bdbdbd9f8cddU, 0xbe2201303b3a6dc0U, 0x3c4c6957bdf7e9bcU,
  0xbdbdb5e73d0a456aU, 0xbe3f0519be66998cU, 0xbe33cd55bd5a2c2bU, 0xbde0098dbe1237f2U,
  0xbdb6916cbdb470aaU, 0xbd87c8e43cc0af39U, 0x3dc8008cbe298b3aU, 0xba802227bcd4c99cU,
  0xbdb328743c3e89c7U, 0xbe0472ff3c7cc2a8U, 0x3caa3a653cb405dcU, 0xbdf0739a3dd4684aU,
  0xbd59363abd862d86U, 0xbdd520743b680637U, 0xbe02df8c3d06eeeeU, 0xbd2ff1e8bd8925d5U,
  0xbdaacd243da6d179U, 0x3ca9eaecbdfcbc10U, 0xbe031155bdceacecU, 0xbd8ba0b8bce1d84cU,
  0xbc7e1a7e3c94e8c3U, 0xbd8f5fedbc42b305U, 0x3c983f903b57915aU, 0x3cc95723bdd4647eU,
  0xbe172945be28e313U, 0xbdfe0adc3d276536U, 0x3cab89f9bd6b448bU, 0x3cbcc6853cd6877aU,
  0xbd0525073d8013cdU, 0xbd86bea73cdc4b00U, 0x3cec8fad3d36f328U, 0xbd07a813be0e659dU,
  0xbe025c063cd41d38U, 0xbdb432433c56f6bcU, 0xbb93ae3bbd0cbec0U, 0xbd6d1ca1bdc0d62bU,
  0x3d974b773cfdde26U, 0xbc2a7979bc49ffa5U, 0x3d25acbfbe3760abU, 0x3cfebe0bbda71a3cU,
  0xbd0e2ff83e08254aU, 0xbcdb74c63c9d47d3U, 0xbdb3cdddbd3115e6U, 0xbd46baadbdd74710U,
  0xbdba480fbd5641f1U, 0x3d90a4b7bce171f6U, 0x3c80b27dbd81b19cU, 0x3d8a1beb3d7c69a1U,
  0xbd0cad17bd2fd583U, 0x3d29edfe3c2e3d73U, 0x3d7e3b713c12ffd8U, 0xbe173ea9bd827f3cU,
  0x3e22390ebd11e23cU, 0xbdb1afb1bb44a3daU, 0x3cf2ae5e3dd57cf4U, 0x3d5d85cabd3ca009U,
  0x3c9573e6bdba24e6U, 0xbe02b12ebb9dabb0U, 0xbc4d9547bb33060cU, 0xbdd0afbb3cc50663U,
  0xbd059579bd791a10U, 0x3d565d49bd69d774U, 0xbc9cbcd53ca2fef7U, 0x3d10b570bd8c9a90U,
  0xbe272d5bbd4be73bU, 0xbe067e14bcb5a543U, 0xbddd05e1bc8a2370U, 0xbe5fd53dbd20d51fU,
  0x3d3b93cbbd43e6a4U, 0xbdbf8f9a3d415675U, 0x3ccbecf4bd5190b4U, 0xbdb130b3bd5dc1fbU,
  0xbd56ea04bdb87c2dU, 0xbdd731acbb320a81U, 0xbcff4beb3c292940U, 0xbe2026eb3c6a9aafU,
  0xbda60d523d080554U, 0xbdbbdd60bc15df34U, 0xbdf8517bbdeac00bU, 0x3d3fa994be1f812bU,
  0xbc9684a2bc2a55e0U, 0xbdb7316cbd8023bbU, 0x3cc30108bd657028U, 0xbe5b14bc3d33b94fU,
  0x3bd6258f3cbaac5dU, 0xbe1fabe73cb0d515U, 0xbd233dbabddddc1fU, 0xbdc3a5723d75510dU,
  0x3c79a6fc3d07fc32U, 0xbda661e43bfb0eb4U, 0xbe013353bd3281baU, 0xbdad536d3d5cf961U,
  0x3d780841be16a075U, 0x3df53321bd177337U, 0xbd8b8714bd2c5a46U, 0x3d6f31373d8009c0U,
  0x3c6e299bbd960c09U, 0x3e0606233e159bbeU, 0x3d9cbaac3b3033baU, 0xbd7bd92dbd69aa13U,
  0x3dd911fb3dd2cc8aU, 0x3bcb2b703dc061b8U, 0xbdb27fcc3e0107fdU, 0xbde678763dd9e143U,
  0xbd3a906bbe0f5977U, 0xbce34c683d9e5ec2U, 0xbda144333cec2bf4U, 0xbd05d203bce94669U,
  0xbd0f9d10bda7480fU, 0xbcf1013dbd4c199eU, 0xbd3dcde93d15df91U, 0x3da91758bbdf3d14U,
  0xbdd1e8f23dba6c4cU, 0x3d6091bdbd9780ecU, 0x3cd8d16fb956acd0U, 0xbd389cee3d4ed87aU,
  0xbd658deb3d1549daU, 0xbd6fe3143b8e00adU, 0x3cb0d0cfbe02d81eU, 0xbd74ad6cbc46982cU,
  0xbcd1c40e3cff8b42U, 0xbe2e7f90bda5dc1cU, 0xbca66a853d41d5f8U, 0xbdf0d5ec3dadb35dU,
  0xbc31673abcf27038U, 0x3d71a9b43da1a192U, 0xbc24d4803d281fb7U, 0x3cdbaba83c8e59bfU,
  0xbd671c5fbd5eac2cU, 0x3d2e6fd6bd9f218cU, 0x3c6d132cbd1cafd8U, 0xbe27227cbced01cbU,
  0xbd42f9083cb87f53U, 0x3ce1d65f3d0ce406U, 0xbd5e8e803d305020U, 0xbdf7abe53d524149U,
  0x3e13a45e3dc0b3fdU, 0x3d33cb48bd8f3bbaU, 0x3d95234cbd54e0dfU, 0xbdc15bb03c9e0bddU,
  0xbd29fafd3d0abce1U, 0x3de9706b3ca5fcf8U, 0xbddc07b3bd216760U, 0xbdab6a10bbfd60c2U,
  0xbdd857cd3d9141beU, 0x3cb8309a3e03df82U, 0xbc4eeb723c6efbceU, 0xbdd8da6eba56310eU,
  0x3da216703d2af842U, 0x3d5ec1723d873ff7U, 0xbdbf21d4bd05c8f2U, 0x3d345d7f3d98d20bU,
  0xbd9a31353dab95e0U, 0xbdb80635bdd47b07U, 0xbd22e570bd98d19cU, 0xbd5035ec3d9f209cU,
  0xbdcba6b23d4f0060U, 0x3cdbc340bdba9d8aU, 0xbd8f4ec23cc2a43bU, 0xbd486c61bd8a6f7cU,
  0xbc411cd1bdcb5fb9U, 0x3bc43910bca37948U, 0xbd9bc6b3bdaa70edU, 0xbb53e15d3d3084a5U,
  0xbca56ec03d8ae9f1U, 0x3dcf652f3c46d559U, 0xbd5cfcc2bced2447U, 0x3dbf809cbcf3d16bU,
  0xbbb436bbbccc2317U, 0x3c80a6993da34d42U, 0x3dc4508cbdd724d8U, 0x3d9a2973bd1ebb25U,
  0xbb9fc584bd5e42e0U, 0xbdadc4a33d73d27fU, 0xbd5c24e9bd9f6b86U, 0xbda1d77ebd8e41b3U,
  0xbde91706bde160aeU, 0x3d9a91dcbd33bd7cU, 0xbd542621bdd04355U, 0xbce74f293d845c56U,
  0xbcf7fd14bd69bec4U, 0xbcd7b8c1bd8ae6a9U, 0x3d057043bd892c91U, 0x3c9e518fbd918d19U,
  0x3cc3d32ebdae0c8bU, 0x3cc49f4b3d5e1d71U, 0xbb99985c3c7c2f5bU, 0xbd9b5105bdda66fcU,
  0xbdda1decbd674ac0U, 0xbdeaa8b43b05892cU, 0xbdce8e78bdb33eb0U, 0xbca7ce503dd0003cU,
  0xbde41d643c632292U, 0x3cc78d103d5feadfU, 0x3d9872053db22dcbU, 0x3c0459a23d9b8e0bU,
  0xbceee5583d84b646U, 0x3d71a4acbcde4e7eU, 0xbdc97fef3ccf71afU, 0x3dc5c2133dd6ebd8U,
  0xbd5938843c372982U, 0xbd8660bebdee3702U, 0xbde34bc1bd328e23U, 0xbd0b02d1bcdfe58bU,
  0x3da2c17b3bd5bc66U, 0xbd98d30b3db585adU, 0xbd1643fa3b0e8cb4U, 0x3bb47a243d848c0eU,
  0x3d1fa9debd6527ffU, 0x3daa3e00b9cb8ba8U, 0xbda1502dbd84c354U, 0x3af96cf3bd649338U,
  0x3d2440893aa45ec3U, 0xbd5d2e9f3a2b0d08U, 0xbd9744083da54464U, 0x3d8d37cabd465218U,
  0xbc98d2213ac98163U, 0xbd1c52393d81a4a0U, 0x3c4f96cebd30f31bU, 0xbd6315ccbdf9c388U,
  0x3d522d41bd432c15U, 0x3c007961bd36fc4cU, 0xbd60249a3bb744daU, 0x3d965413bcc352c9U,
  0xbc6175e23d89e072U, 0x3cfa1a303af15fc9U, 0xbd6cadf63ce349d1U, 0xbd98dc42bcc005ccU,
  0x3d4da56e3cc469bbU, 0xbbebc03f3c2ddee5U, 0xbba00d1a3d98358cU, 0xbcc078f53dfe7716U,
  0xbdfc0b333dc809d1U, 0x3c468b7f3c2da3dcU, 0x3d1ca366bd96a2daU, 0x3d9fdf99bce4d627U,
  0xbe138d4b3cfce780U, 0xbd6823a83d2fc991U, 0xbde6d8bfbd8756c2U, 0x3e020caebd840c0fU,
  0xbe03cfa33cd9e272U, 0x3d1586d33de631a1U, 0x3d85b10dbce34a92U, 0xbc9639cc3d75e346U,
  0x3cb98f853dc9e91fU, 0xbd3215a8bd773506U, 0xbddcb060bdaa9c63U, 0xbd303a133d1fa273U,
  0xbd256c69bd922adcU, 0x3d8213f93cefaa4eU, 0xbd0e65233caa0bf4U, 0xbd3a54253d1047d7U,
  0xbd505441bd90a5d3U, 0xbd2976843d36479cU, 0x3db36375bdba9c94U, 0xbdd105edbd181003U,
  0x3dacffb3bbfce557U, 0xbd6869c63d6229fbU, 0xbbb95feb3d7e5162U, 0xbcc863263db22c58U,
  0x3dca60eebd09e938U, 0xbd57c420bd0ae12bU, 0xbd3022f83c55c742U, 0xbd969253bc2a2854U,
  0xbd842fabbd98f59aU, 0xbdcede47bd1ba4efU, 0x3dae772fbde2c315U, 0x3a4dbd93bd2a4f6cU,
  0xbde30f303d9270dbU, 0x3c922b93bcc4c148U, 0xbdb22f183d1dab7eU, 0x3da399e83da00240U,
  0x3bc41506bdcb539cU, 0xbda62e4f3ca7f522U, 0xbd986d78bccc879eU, 0x3d5e60873e023b92U,
  0x3bc25eeabd0943c4U, 0xbd368d223dd0709dU, 0x3cfc903bbc9b0c8dU, 0x3d0cbda53b5cbd79U,
  0x3d3f45443b95e333U, 0xbd4fac91bc9377e4U, 0x3cf664a7bd272a18U, 0xbd39b797bdec24a6U,
  0xbdaa1d2f3c989048U, 0xbdee73c4be09cadfU, 0xbcc72792bdd9da53U, 0x3db8e25c3dc2ceb5U,
  0xbcc056c4bc2d8311U, 0x3c119a863d27aa44U, 0x3da047863cfac3feU, 0xbdb0a4513cdc6078U,
  0x3cc47b21bd7cb8ecU, 0x3c92a06c3d5ff65bU, 0x3ca321f0bd3f6acaU, 0x3ca8cfe13d8f611eU,
  0xbd03d768bd59d6b4U, 0xbdd781853d9d1fb4U, 0x3cd302d8be0730d6U, 0x3d27b4d1bdbf15fdU,
  0xbdff1020be19524fU, 0xbd1e8fe7bdacc7c9U, 0xbd6b0fca3b378b88U, 0xbd642751bddfbbaaU,
  0x3c9cc1123a7b6d32U, 0xbd508910bc4fc503U, 0xbdd40c0fbcd343aaU, 0xbd7b6ca0bd76c742U,
  0x3cda493c3bd9752fU, 0xbd0bc6f0bd8c912eU, 0xbd3d7da1ba26b084U, 0xbe092fd7be1af5efU,
  0x3c830e75bbc6a341U, 0xbc32a9dabcee93beU, 0xbe03838bbde78b1eU, 0x3b9960acbd8536d2U,
  0x3d757833bddc9de0U, 0xbe220ca03cee95b8U, 0x3d389349bd909995U, 0x3cfe9ad5be1f2fffU,
  0x3c770536be37b81eU, 0xbddbbaa1bdc33f6aU, 0xbde02a273c0aa016U, 0xbe110466bcf4bc39U,
  0xbdb9279ebda483f5U, 0xbd124890bd1af607U, 0xbd8c0173bdd70c3bU, 0xbd98540cbd854ae7U,
  0xbd925f4abe066765U, 0xbe59066fbd946c02U, 0xbd8f3a1bbe4f4d7aU, 0xbced410abcf5740aU,
  0x3d0abce8bdf2f9d4U, 0xbdf11394bda6d7caU, 0xbdaba64dbd86b34dU, 0xbe364597be01143bU,
  0xbd0c6d8dbdfb4095U, 0xbde4fa5cbdf415f7U, 0xbdb62d1abdb84b6eU, 0xbca6a48ebe376ae4U,
  0xbdb662b1bc5ea859U, 0xbbb9b3f53daccc7bU, 0xbd61f7bfbd1b63fbU, 0xbd550c533d5f7067U,
  0x3d76d8863d1a477aU, 0x3cdddae93d261429U, 0xbc9a22e33cd38ab4U, 0xbd380ad3bd73ff7dU,
  0x3d43a2f73e3469f7U, 0x3cc521ac3b21d2ecU, 0xbd9145d63db11639U, 0xbd6545ac3dc73f22U,
  0xbd4124ac3da6ffaeU, 0x3dd92becbe1698c5U, 0xb88e85fcbc028e86U, 0xbc83319c3da87bf5U,
  0x3c92e4b4bd1673a8U, 0x3d55c3e43d79d9ffU, 0xbd02cbdfbc857cc9U, 0x3d807b8f3d38894bU,
  0xbdc44aa93c1eb0abU, 0x3dbb43a53caeda5eU, 0xbc9db79bbd0e4eb7U, 0xbbba567cbae3e4aeU,
  0xbd9fc8bd3e37d567U, 0xbc0d2d643daf9226U, 0x3d53d157bd912628U, 0x3d7194c63d961f91U,
  0x3cb61a8f3d0da5c7U, 0x3a97fc123c8038d0U, 0xba631dbdbcbcaa41U, 0xbc14ba593d5b7528U,
  0xbd42f7e93dc061fcU, 0x3c0e11aabbf82704U, 0xbd1ff80c3e146528U, 0x3d81a55cbd85fde3U,
  0xbde2d12c3de36b37U, 0x3d7f235e3d4a62c3U, 0x3dc757ea3dcd0534U, 0x3de1d7f5bdb1fec0U,
  0x3e0bde8d3e2e8eeeU, 0xbdb7edad3d86959aU, 0x3dab004c3e243eb0U, 0x3e27d7f93e1e78a0U,
  0xbdb55abf3e3a73c2U, 0x3d97b53ebc73124cU, 0x3df7390a3d96ccf5U, 0xbc42f5f33ce0e39dU,
  0xbdc29a0f3d24e5bdU, 0x3e074c9f3dbe96d8U, 0x3e3107963ce056a3U, 0x3b596aca3b7f143eU,
  0x3cafbee63d8cc99bU, 0x3ddb3d9abd731f3aU, 0x3b948acebd59844cU, 0xbba55e4abb6da9e2U,
  0x3de17da93ce53b24U, 0xbdbc287b3bd5da30U, 0xbd7148833d2f7cd1U, 0x3dae39363d3b4e6aU,
  0xbdacc65b3e00436fU, 0x3d726548be1cdf80U, 0x3de3b21d3bed87f7U, 0x3ca172223d9ab773U,
  0xbcf78113bcc6915eU, 0xbbc700963d8d8082U, 0xbc1d63553d84829aU, 0x3e07654c3d869e88U,
  0xbb348a1abc5b96d5U, 0x3e08361abd081570U, 0xbdad079e3d81d471U, 0x3d00d801bd61381cU,
  0xbd1ef4983d80499aU, 0xbae823d5bdcac99eU, 0xbd5cfb7c3d3bfa1dU, 0xbd04f4b43e2ba89cU,
  0x3d19a1183e249747U, 0xbdce7d03bd0f3712U, 0x3c667ff03dfae803U, 0x3d217cca3d0c0900U,
  0xbd9d46f4bcad9a42U, 0x3dffa259bb87ccd3U, 0x3db9b95bbb722348U, 0x3e315ada3d692186U,
  0xbaa0d6a93dd9de36U, 0xbd269a3e3dbab52aU, 0x3dad0fdfbbf50bfbU, 0x3d6b25c83c33425eU,
  0xbd311c5e3e3c105aU, 0xbd9f9a1abcd8f8cdU, 0xbcc7354abc685aacU, 0xbc93fb52bba3ff9aU,
  0x3c39090f3e05174bU, 0x3d89781fbd67bcc8U, 0x3dcf94483de07d90U, 0xbd6eb9913dea846aU,
  0xbbd677e9bbeb338cU, 0x3d229a23bb9950c0U, 0x3ce382fd3d128f60U, 0x3d88304f3d083b95U,
  0xbd02fbcbbd2dfa78U, 0xbde9e7f3bd69c1a0U, 0x3bbb8125be1a4bcdU, 0xbd1f9ea9bda5cb89U,
  0xbd3bcccdbcdc5093U, 0x3d80078fbb61ff82U, 0xbc0b3dcf3d4e5871U, 0x3d2c1d6bbdbb21d3U,
  0xbd901bb03daa4087U, 0xbd31b0533d721fe4U, 0x3bd711203d98bb64U, 0x3da9e811bda159a9U,
  0x3cb63fb2bd4a6e75U, 0xbde861b33db9b20fU, 0x3d2cf98d3cb81548U, 0xbd9654fe3d87c780U,
  0xbcfdabeebd24c3fcU, 0x3c52285b3d2fdb5fU, 0x3e0b1e6dbe31dce4U, 0xbd4f8041bd9eb2d6U,
  0xbd2fc5753d94ac7dU, 0xbe2b0a2fbb8ac37fU, 0xbdd862a13c9ea022U, 0x3c33bd2fbc990e96U,
  0x3d64575abbfde078U, 0x3db8d91dbc9e7b7aU, 0xbd704a3bbd845fa8U, 0xbe2816873d228c63U,
  0x3b9831ba3dbdaf28U, 0xbcb20467bd309f59U, 0xbd725e14bd4c98adU, 0x3db9dbe03dbdf8c4U,
  0x3db307473dbb14cbU, 0xbc8d2581bdcfb1d6U, 0x3dce68e83d0c9188U, 0xbd9b68f3bde473c5U,
  0x3ad7539e3e0c12bfU, 0xbdaaa1a83c6e37fbU, 0xbda31cb93cf5c2ddU, 0xbcf089fdbd78d654U,
  0x3d1ac69cbd65c977U, 0xbd060d8a3e0735e5U, 0xbd33e1ad3db9f0b1U, 0xbd910a33bdf8948fU,
  0xbc87d515bc76082cU, 0xbc681e933c6238ddU, 0x3ccb751a3ddcf46aU, 0xbc25697a3dc7964aU,
  0x3d8e611c3dbf2f0dU, 0xbc0f1e8a3db04b59U, 0xbc96569fbdfbcaa9U, 0x3cace2bfbcaa1834U,
  0xbd85996dbaa0a5e2U, 0x3cff4e623d90a031U, 0xbd5b66d73d3aae9bU, 0xbd3f3f853dc79a5aU,
  0x3c823e8e3da93583U, 0x3d0b4f863e19e9f6U, 0x3bda5b8e3dab62e0U, 0xbddfb1023d990441U,
  0x3d323dc23d1873bdU, 0xbe13f1a53c91ee06U, 0xbd34d7233cd36316U, 0x3cf219cd3d93d3caU,
  0x3d098f633d9cca8cU, 0xb975ecc0bd86b7a3U, 0xbc9293e9bdd3e843U, 0x3c28bcdebd6d07c5U,
  0xbcf841ec3d0d8c4dU, 0xbe446a86bdcef22eU, 0x3d0a9e52bd3ce899U, 0x3d95d4713de342cdU,
  0xbdc2f34abc1d98a6U, 0x3dae15e53d627168U, 0x3d41c05ebd544ac0U, 0xbe42fa01bd846cfeU,
  0x3e3076823d82724eU, 0xbc4d4f85b9eca0a3U, 0xbd17e337bdf21174U, 0x3d222f973e1ff365U,
  0xbd892a0c3d8e71f2U, 0x3d53ca31bc4157f8U, 0x3d32b911be0452aaU, 0xbc9d08d0bdbe902fU,
  0xbdf834a63d63cc8fU, 0xbd90459ebda9d76aU, 0xbd2f0a35bd976c31U, 0x3da6c3bb3cf73383U,
  0xbd51bf3dbd89e25bU, 0x3c58def63d2994e5U, 0x3da6efa63dd1003eU, 0x3cb25550bd9b94efU,
  0x3d7d38ce3d40caabU, 0x3d1ddc4f3d3d8158U, 0x3d38dc4bbd9a7655U, 0xbd5f0ae43da81236U,
  0x3c9d22be3d6e0785U, 0x3d6cb22fbc98b2a4U, 0x3d197132bcf1140bU, 0xbdda0f54bc6534a5U,
  0x3d8e2b253ca79359U, 0xbd1fe655bce51176U, 0x3d2ff9d6bdd748f2U, 0xbcab01923d78c315U,
  0xbcbc2b393b2739e0U, 0xbc9a523a3dcdd080U, 0xbcfa98d33a91247fU, 0xbc2d03983d947514U,
  0x3ccf546fbd5002e7U, 0xbe05d88e3c9837edU, 0xbde02da53cfefd3eU, 0xbd81cd7c3df2cd06U,
  0x3d8ead833ca97871U, 0xbacbb214bd66ebfcU, 0xbd0aa48cbe3b8d32U, 0xbd004263be1e2b68U,
  0xbadf3d9bbda5d49cU, 0xbc619e3ebdf20af5U, 0x3d1edd6d3c57b558U, 0xbd3ef8d03dfea1d7U,
  0xbbcf7d6fbda9f7f4U, 0x3d0f70493e257429U, 0xbb8bab24bd229165U, 0xbd4173a83d2c53faU,
  0x3df1fde33d9a90d1U, 0xbdffab48bd1a8bccU, 0xbdc79622bdcbd890U, 0xbd8b18a53d1440faU,
  0xbd6a37493d059f0fU, 0x3cf9caa5bd0e37adU, 0x3d94da52bd8a317cU, 0xbcd0d597be025e09U,
  0x3b8524143d8d52d4U, 0x3cde33ab3c0735a9U, 0x3d03066abe0743ffU, 0x3a6a9ed53c0dc093U,
  0x39fd179dbd85b571U, 0xbcec7eeb3d1afba5U, 0x3b1257f3bd8f42c7U, 0x3c90bb1abdf57a3aU,
  0x3d1b7ac93deaf40dU, 0x3c1c2dd43d11f9afU, 0xbca8e45b3dc1b52eU, 0xbd09abd93da16808U,
  0xbc02f803bbda49b6U, 0x3d9d12213d88bbb5U, 0xbd5d96243da61e23U, 0x3d911b8d3d92dd9aU,
  0x3d108da4bd8d6104U, 0x3dba877dbd5ff2aeU, 0xbd19c62cbd0269f2U, 0x3cb9cc5f3d60e879U,
  0xbe17f0b23df0edefU, 0xbc87cdd9bdab4b40U, 0xbd909a14bd7fbd6aU, 0x3c9939f3bd237f25U,
  0x3e2d721ebdee3033U, 0x3dd76a06bdd90117U, 0x3da7b2c9bd9331b2U, 0x3c39c8e03df0b52cU,
  0xbd2259d5bd1adfbfU, 0x3d372ff53db68ca7U, 0x3c6789e3bc252656U, 0x3d80e59a3d541c12U,
  0xbd5bd81d3dceb1d8U, 0xbdc7712d3d1299e9U, 0xbe368e22bcdaa970U, 0x3d64007abd18a2eeU,
  0xbdb1e37bbe017043U, 0xba66d3363d1057ebU, 0xbbaa09103d7b2c33U, 0xbe2f751d3bd203f6U,
  0x3e0df156bcabf905U, 0x3c2d8f293d02fce7U, 0x3e07a24ebd16cb27U, 0x3c85126e3e51c939U,
  0xbccc2fb63d0808b3U, 0xbdb413a33b374ff5U, 0x3dab973abdf52f9aU, 0xbd0fc174bc9feeceU,
  0xbddd5aef3c630f02U, 0xbdb9e62fbdc9ec77U, 0xbe162b55bcf83495U, 0x3da99b55bd8dee73U,
  0xbd1ed65bbcfbf5d9U, 0x3dc561a73dc3dda0U, 0xbd9123e83dbfd2f9U, 0xbddac64e3c6ba2e4U,
  0x3e53cff33db17fafU, 0x3d54bf833d926866U, 0xbd82c0213cb53cf3U, 0xbbc281eb3e4a1ad3U,
  0xbd1ef19bbd6e9ed3U, 0x3d9967aabce1110cU, 0xbcc498bd3ca5397aU, 0xbd1aa39ebd9b6a78U,
  0xbdb261343dd891b2U, 0x3de12bb73d96c4feU, 0xbd93f6933d5fd363U, 0x3da78b1a3d8451e4U,
  0x3c1968de3b76f257U, 0xbdd13238bdedc4deU, 0xbda0e69ebdeb2412U, 0x3dbc89673dabfa97U,
  0x3d20633ebd3b275bU, 0x3d98ab4e3c1b9267U, 0x3c75dcebbd1d88c2U, 0x3c09e2323da2cc4dU,
  0xbd8f95b3bdb8b016U, 0xbdc889843e271900U, 0x3d4d45dfbd42ced1U, 0xbdb7a3623d00997eU,
  0x3c7014cfbd3d6227U, 0xbd904e0a3ddc7166U, 0xbd2a832f3ccbe455U, 0x3d9b86913d1eb1a4U,
  0xbd806de23b63f0dcU, 0x3c0edd163d98b1d4U, 0xbd86bb67bdb31b63U, 0xbe286eb13d637cd0U,
  0x3e4a11133d64c5e9U, 0x3d0a6e003cf3ae8aU, 0xbd4057e1bd14e068U, 0xbde327b83e1defe4U,
  0xbe12f0923d99d6f9U, 0xbc6987c7bdfffffcU, 0x3d8ffe693be2cc3cU, 0xbe389dd93d23073dU,
  0xbe76ecd43d34cd1dU, 0xbdf9ae2dbd35c5bfU, 0xbe28bdf6bdda85aaU, 0xbbfed4a3bd505f3dU,
  0xbd8059b63d8a053dU, 0x3cfe5c103c5ea7daU, 0x3dcdc1e03d53acddU, 0xbeabc370bd91be0eU,
  0x3e19245d3df139feU, 0xbd973d743d5982aeU, 0xbd4eafbabd9bce8dU, 0x3bb50faa3de198d3U,
  0xbde8640cbca3f9fcU, 0x3e2e74003d0af7c5U, 0xbdc7d777bd872e61U, 0x3d73e7bebda3d001U,
  0xbd57f5553d199996U, 0x3d5c859e3c4effd0U, 0xbda3fb9abb201c14U, 0x3cb7352dbd6adec9U,
  0xbc7897843b6727eaU, 0xbd971ced3d258fa4U, 0xbd876457bdaabbcbU, 0x3ddb5aa43cc84fe8U,
  0xbcbea779bbd4d40fU, 0xbbb1dbb2bb2720e9U, 0x3d8dd5babd7b6869U, 0xbd8ffa4a3db81bcbU,
  0xbe6e26793d26aa14U, 0x3de8e45d3d6e097aU, 0x3dd48520bcdf71d7U, 0xbda1951abd891db1U,
  0x3ab9c4c63d783631U, 0xbca0331d3e17052cU, 0xbdcc8b6fbc406588U, 0x3dd805443e003188U,
  0xbe17d009bd86cd0cU, 0xbd3d24453e04ddb1U, 0xbdaddc20bcc6622aU, 0xbdde1ae53dd2cbc1U,
  0x3e908963bd63414cU, 0xbdac30d7bd8c3299U, 0x3e26e8ffbe084360U, 0xbd46252b3d7993beU,
  0xbd4227d93d0fc58eU, 0xbdb39f7d3cb7c3f1U, 0xbcab1f4cbdc018feU, 0xbd8b2c63bd20b2b5U,
  0xbe270c6a3cf219b1U, 0xbd58f2343b984e8dU, 0x3b563534bddd40eeU, 0xbdc3988d3d4d22b1U,
  0xbe58b2ef3c346549U, 0xbcd2ec503d65c45cU, 0x3db0aec7bcdfe406U, 0xbea2a322bd2668a1U,
  0x3e6d965ebd3d5220U, 0x3cfc04eebc67301cU, 0x3c7196d3bd454478U, 0x3c9331b33e174041U,
  0xbdcbd445be04009eU, 0xbdc3ae06bdfad260U, 0x3e2d59ffbd8251faU, 0x3d592c873d04b259U,
  0xbe0a03dd3d83d9aaU, 0x3c0897ae3c81d9e1U, 0x3d385894bd033e64U, 0x3bcce2d43c912e87U,
  0xbdbc25c33d5f2fa3U, 0x3b920ebbbdd1d39eU, 0x3dddde2a3dbd10ebU, 0xbdd214873993987eU,
  0x3c1ad4bb3d18e465U, 0xbbaf667ebd9692d7U, 0xbdf0e707bdce4c0fU, 0xbba39b50bdab869cU,
  0x3a8a98cabdf6efc0U, 0xbd9a18f7bdd75a70U, 0x3cd57483bd903656U, 0x3be088e73d5e3326U,
  0x3d2465f3bd8e19f9U, 0x3d84ad323d5ca9d2U, 0xbde23a2abdd70287U, 0x3d00e1323c871b1aU,
  0xbd9977723da7a685U, 0xbdbe199cbdc1ea4aU, 0xbc56e2f6bd11845cU, 0xbc7bd1e1bd170b0dU,
  0x3dd26344bc90e909U, 0xbd9bda82bce1c88bU, 0xbdc9b2c93c452818U, 0x3d0480e1bd958bc7U,
  0x3d372924bd860e39U, 0xbd655be93d6d9a6fU, 0xbdc580cbbbc7ca33U, 0xbdee0be1bd9e5a77U,
  0xbdeb3ac2bcf58f72U, 0x3ddd03b0bceb00abU, 0xbd94ec033c0d300fU, 0x3c6fda8c3da1e844U,
  0x3d806ce3bdcf952fU, 0xbd88b60fbc9c0e7eU, 0x3c4dbcfbbde04337U, 0x39a340a5bd05d916U,
  0x3d1d2057bd5cfc71U, 0x3d85bbfebd838090U, 0xbc83931a3d9518ffU, 0xbcdcb1723d94bfabU,
  0x3cd121da3c99562eU, 0xbcfe1ba2be06c247U, 0x3d83d80e3d81fc97U, 0x3b0d591bbd1d2da3U,
  0x3d11bc46bdbe89b7U, 0xbd8d477cbbcf6797U, 0x3d981dab3d5a373bU, 0xbd8c7bb73df3f215U,
  0x3ce2cb30bb7e22f7U, 0x3d7bde40bd773afbU, 0x3d5d8e893dfa0a9dU, 0x3d8f3cda3dfd84ddU,
  0xbd9186a8bdea3d44U, 0xbdb2542ebdb07576U, 0xbcd2a9c7bce64bc1U, 0xbe005ac63d68bd06U,
  0xbcd6795fbd27afdaU, 0xbdd9156e3d9ae618U, 0x3cb43f26bd117a56U, 0xbdd5990fbdca029fU,
  0xbd371dd8bcd6c1f8U, 0x3dc4a9033cd9e7c9U, 0xbd0800053d80c119U, 0x3cdcdec73c0af725U,
  0xbd871139bc12c1c3U, 0xbc9d8eae3cafdae6U, 0x3d9679a8bdd03bd6U, 0xbd864dadbdb7147bU,
  0xbdc4e2e43b9c3cd2U, 0x3d932ae23cf84919U, 0xbd522be73c8114cbU, 0xbdb972abbd394d1fU,
  0xbdfe01bcbdf1d333U, 0xbdb03903b9a6f3b3U, 0xbc8afa7a3c2778dcU, 0xbdf6a70dbcaad499U,
  0xbd020db83d9071eeU, 0xbd401f42bcfbe008U, 0x3cb31b993db8f35eU, 0xbc51064d3d545285U,
  0xbe05198f3d628e69U, 0x3d43ff3ebda6209dU, 0xbd96859bbdf3d6f9U, 0x3d323049bd9e2cceU,
  0xbc8d908c3d1545f4U, 0x3da89787bda3d038U, 0x3d7f66ef3d808c92U, 0xbd88f28e3d9fe7bcU,
  0x3d33eeedbc86449dU, 0xbd00959b3cbc9cecU, 0x3d5400b63d3d8d75U, 0x3cf4e6f03d6a9465U,
  0x3d0ced0b3cabb611U, 0xbd9103c23cfff778U, 0xbc93aac03cf9af9aU, 0xba88925cbc858691U,
  0xbc89fd37bd6c6339U, 0x3d2d134cbdc64ebbU, 0x3b2181453d4a77d0U, 0xbe0060353b9e2bfaU,
  0xbd8a29443d704059U, 0xbc271b373d7f270aU, 0xbdd19709bdca303bU, 0xbd7b7aedbcb60f59U,
  0x3bf5a2c3bb243425U, 0xbdac35b4bd9c462cU, 0xbd7b2247bdd45225U, 0xbc8df22bbd334eeeU,
  0xbd6776b7bc211853U, 0x3d99d57ebe01fbdfU, 0xbd8049123db55861U, 0xbd1151c4bce5b1a2U,
  0xbca0ac60bdd9d9daU, 0x3cf5cddabb895239U, 0xbdab1775bdb6b323U, 0xbdd3acf2bc741369U,
  0x3d3ac2ca3db1a7e7U, 0xbd1c56fc3bac0b21U, 0x3d82ca03bdc7d246U, 0xbde37a543d5792ecU,
  0xbb66d4b73cd2f580U, 0x3d0c0dbd3d0ae0a5U, 0xbdf38f01be05f74eU, 0x3af0d5bebddd9500U,
  0xbe0041c2bd1bdef5U, 0xbd7217e23bdaaeeeU, 0xbd69261fbdb520b2U, 0xbe0e587abd980aa3U,
  0xbbbc06a23d51cea9U, 0x3cab5a7e3cc2b075U, 0x3d88b928bd9662ddU, 0xbdb273b6bd886fc8U,
  0xbcca5a66bdb5b136U, 0x3d793c41bd2c6c63U, 0xbd8556883cddece6U, 0x3d811daabc33518cU,
  0xbd7956c6be847ddbU, 0xbdaffa7d3db4943bU, 0xbd9dd237bd321a7cU, 0x3d43ce6f3c51a155U,
  0xbe2ab1523d80d6efU, 0xbd67eb193e000623U, 0xbdc3800dbdcfe247U, 0x3ca254093d79f597U,
  0xbdd2dcbc3ddcceb8U, 0xbe49930dbe3cb944U, 0xbdf74032bcfa6bbcU, 0xbd6912d1bd4cec98U,
  0xbdee8f18bdf20325U, 0xbd3d5fa8bd2f8c72U, 0xbd866354be65d609U, 0x3d905643bde9e684U,
  0xbcbf81debe200e16U, 0xbd9b5db5bd6cfc45U, 0xbe9c0e0dbdfd9a7eU, 0x3dab56d9bd717ee9U,
  0xbd317ae5bc950c14U, 0xbdad913ebde9f0b5U, 0xbc4c73a83cb40594U, 0xbd2c540cbdcf6b75U,
  0xbe4e79bcbd10439dU, 0xbdddb61fbdd3e120U, 0x3d5d9e7fbe78226aU, 0xbdc113c8be50876fU,
  0xbe0ad0acbe05a021U, 0xbe561ecc3d18e8ceU, 0x3d0e1f7a3d0b4499U, 0x3dfd2925be01c379U,
  0x3e13e6be3e07f1e1U, 0xbc200d32bdda780aU, 0xbda09ad53ca57126U, 0x3cdb48113d929c31U,
  0xbd140b46bdf9aff0U, 0x3e0074d6bdd437f3U, 0x3dd202203d16f725U, 0x3db18394bc8c55ceU,
  0xbd020bac3d2f0ecfU, 0x3d8d705cbc5108b3U, 0xbc16d2d7bdc8302aU, 0x3e1a84dbbe0cae4aU,
  0x3d9a351fbd15494aU, 0xbc192676bacb0fb5U, 0xbdaa48bc3b8b8beeU, 0xbcb42242bc6ce84dU,
  0x3d2d14eebe4bf740U, 0x3b25f4c43c307132U, 0xbdeed141bdb20a94U, 0x3cf3cef7bc523020U,
  0xbe1c01d3bc144c93U, 0x3ab37de03dd69fceU, 0x3aa6d820bdc71b7fU, 0x3b8f0ca2b9a2b25eU,
  0xbe3b5112bce9b4b2U, 0xbe1175a8be351e29U, 0xbd9bf266bdd10d25U, 0xbd85be4cbd586e7dU,
  0xbddc16b9bc36c447U, 0xbdfe607d3dcaed82U, 0x3da78d45be38254aU, 0xbd0d7ee23cd483b0U,
  0x3dbe525cbd83e837U, 0xbe2f6086bbc5fe2fU, 0xbe05d7fdbcf1b1a8U, 0x3d449fbcbd3f0adcU,
  0x3c732068bccda258U, 0x3d8a23d7bd34c2bfU, 0x3c308d1f3d9bcbf5U, 0x3c896f21be0aea93U,
  0xbe5e55fc3d79b6ccU, 0xbd4fa18dbda7b684U, 0xbc95e57bbe1b0cd1U, 0xbd6520e5bea88645U,
  0x3d70ab6f3a828210U, 0xbe6af15d3d615cfbU, 0xbc9dee26bdf6e6baU, 0x3d93543b3d262827U,
  0x3df45f593ddabdb3U, 0x3dc65a3fbde47308U, 0x3ce3cfe53dbc1986U, 0xbdbdde9a3d6dde50U,
  0xbdbcbc7ebc8088efU, 0x3c4bf41abdbfad83U, 0x3d43625e3dd231deU, 0x3db78fa5bd982c1fU,
  0xbbfd595fbd93a23cU, 0x3e28f21d3d6d059dU, 0xbd96a298bdf063a2U, 0x3d2bf144be05cca5U,
  0x3e19de8a3caeca39U, 0x3d91b9a13dac300aU, 0x37b40f603e07f358U, 0xbe00d7be3dd17358U,
  0x3dd5ec25be3b905aU, 0xbc0c0a2438fce670U, 0xbe428b3b3d774b77U, 0xbc903c55bd3548ecU,
  0xbde77780bd6e285eU, 0xbd5ac4d73dc332bdU, 0xbdb7bafc3d81cf8cU, 0x3d9f9054bc675921U,
  0xbd31561e3d112f43U, 0xbe251abbbe09421aU, 0xbe5055083b13b816U, 0xbd5739a0bd60dfceU,
  0xbd9d5497bd6a3467U, 0xbd5ed7bebce0ea48U, 0xbd784b92be2ce97eU, 0x3db5f27fba496900U,
  0x3deea9703be17bfcU, 0x3c597f0fbd81df3eU, 0xbe77076e3d073735U, 0x3cb3f2ccbd1438a1U,
